BCAB
3CBD
BCE5
BC8B
BBDB
BCA2
3B0E
BAF7
BCFE
39FC
3CEB
BCE9
BC1D
3A87
BB8D
3A08
3CF1
BCE4
3C80
BCA8
3CE0
BCBC
BBD0
BCC3
3C68
3B3D
BD0B
BC8A
BCF8
3CEB
BC27
BCAE
3CC6
3CCD
BC42
BC68
BD2E
3C97
3BE0
3B3F
3C4E
BCB8
BCAE
3CFF
BD91
BD98
BD48
BD51
BD15
BCC3
3CAA
3CA1
BCE8
BC73
3CF1
3C8B
3CDD
3CBA
BBFB
BDB7
BBCC
BC90
BD8E
BCE4
BE2F
BE0A
BE52
BE16
BD1A
3D6E
3D98
3D41
3DBC
3CA9
BC88
3C92
3C82
BD03
BC03
3B0B
3C04
BC90
3C9A
BBFB
BBE7
3C92
BCDB
BD24
BD97
BD0A
BBB3
BB94
BCC1
BC7A
BC92
3D08
3E1C
3E65
3E63
3E41
3E2E
3D5A
BC9F
3CC7
3DD3
3B39
BD18
BD3F
3D09
3D13
3DA4
3C88
3BF0
BCCA
3D44
3D30
BB03
3D80
3D9B
3C4D
BC26
3D2D
3D0C
3D02
3D88
3DF1
3D4F
3D6F
3D84
BC7B
3CF8
3CAC
3B3D
3D21
3C37
3DA3
3C91
3D6B
3E04
BB87
BCE0
3CD2
BD25
BA6B
3C53
3E44
3E0A
BBC1
3D71
3CAC
3952
BCF0
3D01
3D7E
3DCE
3D0A
BC49
3BC7
3C41
3B94
3A0B
BC1E
3D44
3DB7
3CE9
3DD1
3D71
3D33
BC26
3D0D
3DDE
3DDE
3DEF
3DEF
3DFA
BCC4
3D3F
BD60
BD85
BC46
3D35
3D8C
3DAA
3C06
BD51
BC80
3CFC
BD0A
3CCC
BBF7
3B63
BB88
3DE9
3E16
3CE1
3B4C
3B52
3DD6
3D43
3DD9
3D72
3CD4
3D51
3CF8
39C0
BD59
BCAD
3D05
3DB4
3D6E
3D55
BAE6
3CE5
3CA6
3D0E
BC43
3CDC
BC85
BDA9
B88A
3DCB
3E16
3D60
3D94
3B77
3D97
3D8E
3D20
BD99
BD83
BD49
BCF3
BC5C
BC92
BC0C
3CA0
3E21
3E42
3E30
3D9E
BCF6
BD1D
3B89
BD90
3C32
BCB3
BD1C
3D77
3DBF
3DDD
BD2F
3D92
3D8B
3DCC
3D48
BCB0
3D6F
3B00
BD19
BCB4
BCD1
BB18
3D59
3E12
3E64
3EB4
3E76
3D70
BDA6
BDE7
BD77
BA8F
BC42
BD1A
3AF0
3C95
3DCD
3DCE
BC58
3DEA
3D8A
3DD2
3D99
3CEA
3D23
3CB7
BCAE
3CAD
3BB7
3D80
3D83
3E59
3E8C
3EB6
3DDE
BDBB
BE34
BDF5
BD85
BD6D
BD3D
BD06
3CED
BB8D
3BB7
3E02
3DDE
3D28
3C77
3E04
3E50
3DBD
3CAF
3C3A
3D49
3D15
3D3A
3DAC
3E34
3E74
3E50
3E04
BDD2
BE7B
BE24
BDAB
3BD0
BD94
BDD0
BD90
BDC0
BD34
BBF9
3C44
3DAA
3D18
BC2A
3DE8
3DEF
3CB5
3D3A
3D41
3DBB
3DEC
3D9B
3E18
3E40
3E13
3DA8
BD99
BE06
BE28
BDAD
BD28
3C1B
BD69
BD85
BDC9
BD84
3BB8
3CB1
3D0D
3D67
3D04
3CC7
3DBB
3DAD
3B43
3D0A
3D81
3DFF
3DA6
3D8D
3E06
3DAD
3994
BD36
BE28
BE2D
BE04
BDCD
BDCF
BDA7
BD76
BD4F
BD5F
3C84
3C83
3DEF
BD99
BC86
BBE1
3DA1
3DAF
3E4D
3CDA
3D58
3DD6
3DF1
3D85
3D9D
BCAA
BD95
BE0B
BDFF
BE11
BE1C
BD4E
BDEE
BE05
BDB4
BDB5
BD0D
3D29
3E01
3E5B
3E23
BDFD
BDCE
BD9B
3D27
3B46
3E03
3D8A
3D46
3DB4
3CC5
3B28
BD8E
BDFB
BE34
BE46
BE0C
BE2C
BDA4
BD8C
BD4E
BDB2
BD06
BDAD
BCE7
3D87
3DD3
3E1E
3E28
BDA6
BDBD
BDBF
BC87
3D90
3D28
BCDE
BC22
BC5A
BDB9
BDF6
BE09
BE34
BE08
BE2B
BE26
BE15
BD62
BD95
BD52
BD97
3C1F
3BD4
BC9D
3D15
3DCF
3D33
3DFD
BE32
BE24
BDA4
3CA2
3CE0
3D3D
3D33
3CC7
BD4D
BDD8
BE0C
BE21
BE63
BE1D
BE13
BE5E
BE81
BE0A
BC59
BD07
3C82
3D0B
BC06
39E9
3CC5
3D42
387C
3C47
BDD4
BDE8
BE06
BD17
3CB3
3DB8
3DA9
BAFB
BD3E
BE0B
BDE5
BD99
BE13
BDEA
BE46
BEB2
BEAF
BD91
3DB6
3D39
3D31
3D74
3D41
3CAF
3DD9
3DBA
BCDA
BDA7
BD99
BDDF
BDAB
BAD5
3D9E
3DB9
3D0C
BD68
BD43
BD81
3ABB
3C64
BD6E
BDBD
BE0D
BE46
BE57
3D7F
3E3F
3E05
3DE0
3D3A
3D41
3DD9
3DDD
3D0E
3CEE
3C74
BCB9
BDD2
BDA0
3C99
3C15
3C99
BD41
BD81
BD24
BD41
BC1F
3D4F
3D56
3C24
3CF4
3D09
BB79
3E0C
3E34
3E1F
3DE1
3E09
3DA7
3DA3
3CE3
3DC3
3DAE
3C3A
3B2E
BD0E
3B7A
3C96
3CD4
BD64
3B85
BD7F
BB74
BC5B
3D48
3DE3
3CD9
3DAC
3DC0
3DE9
3DC8
3E08
3E3C
3E21
3D8A
3DBE
3DE6
3D8A
3DA0
3DCC
3D3F
3C48
BCE4
BB91
3C5D
BD0B
BD07
BDB4
3C3E
BB77
3CD3
3C46
3B9D
3DC7
3DE6
3D07
3DBF
3D9E
3D5D
3DB8
3E1F
3D97
3E0F
3E1C
3DF0
3DCD
3D52
3CA9
BD64
BE11
BC4B
3D72
BB84
3C93
BCEC
3C98
3D07
BC2A
3C40
3C85
BD2A
BD30
3D8A
3DCD
3D3F
3DA3
3C7D
3D80
3DC5
3DC3
3DAF
3D62
3CE8
3CE7
BC99
BDCD
BE2F
BE38
BDE4
3C9A
3CAA
BBA8
3BCD
3D6B
3D5E
3E00
3C17
3D0E
3DE4
3DA6
3DC8
3DB2
3A62
3D52
3D24
3D38
3DD7
3D34
3E1E
3DE6
B983
BD1C
398E
BDD1
BE32
BD42
3C56
3DA4
BD09
BCC0
BC1C
BD56
3D7F
3D85
BB81
3D29
3E3F
3E6B
3E28
3D03
3D38
3D7A
BBA3
BCEA
3D34
3D9B
3D1A
3DFE
3DE1
3CC1
3DA9
3DAB
3C9D
3D9E
3CC7
3C11
3BB7
BC86
3CD1
3C08
BD06
BD27
BD51
BCEB
3D4A
3E35
3E07
3DF7
3D93
3D89
3D64
3C80
3DBF
3DB0
3CD9
3DFC
3E6D
3D97
3D95
3DBB
3BE0
BBB7
3CA3
BC6C
3BC0
BC50
3CEA
BCC0
BCD1
3DB9
3D6A
3D83
3DA3
3DA1
3E09
3E1A
3D6B
3D47
3E6D
3DA6
3CF6
3DC6
3E51
3DEB
3DA0
3CC9
3D94
3E03
3DC8
BCA2
BCC6
3D03
3CEC
3CFA
3D12
BC3B
BCC7
BC99
3D0F
BB05
BC8D
399E
3C17
3BCC
3D02
BAEC
BC5D
3D98
3D99
3CA9
BC21
3BC5
BD07
3CA2
BC81
BCD5
BD10
3CE3
3C78
BCB7
BD0F
3CEC
BC7E
BB95
3CCF
BC5A
3CA7
BDC9
BCF8
3CEE
3C24
3D3F
3B12
3C35
3B0C
BD51
BDC3
3D1C
3CC8
3BED
BD1B
BC84
BD55
BB13
BDA6
BC33
3B7C
BCDE
3CE2
BD0D
BAF7
3CE8
BBD8
BC11
3CF6
3D87
3C6A
3E2E
3E38
3E66
3E45
3E08
3C7B
3E25
3DB3
3D5F
3E08
3D9C
3D2E
3E07
3E0F
3DF4
3E05
3D93
3DCD
3C96
3A81
3D09
3CB0
BCF3
BDA7
3B8D
3DF2
3DC3
3DED
3B5A
3DC7
3CD1
3D93
3BF1
BCB6
3D17
BCC7
BC2C
BD52
3C89
3DA0
3C38
3C57
3D85
BC72
3D7A
3C04
3D69
3B8E
3C0D
BCD4
BD02
BD76
3D28
3DB6
3CB7
3D8D
3D6E
3D12
3D9F
3A85
BC89
BC1B
BCAF
BDA6
BC50
3D4D
3C89
BC68
BCA6
BD0B
BBC3
3D32
BD8C
BCBC
BE19
BD62
3CC6
BCEE
3C92
BD72
3D8D
3BC2
3D91
B8C2
3D0A
BCCB
BD6C
BE02
BDCF
BD81
BC77
BD05
BD15
39A1
BC8B
BCE0
BD0F
BDC2
BD8E
3C8D
BD01
BC29
BCCE
BD56
3C66
BDB4
BD4A
BDA5
3CAB
3D84
3B01
BDAC
BD79
BDB9
BE0D
BE04
BE02
BE0B
BD56
BD28
3AC5
3CBC
BB3E
BCAA
BDAE
BDCF
BDCB
BD36
BD50
BC39
3D45
3BB9
BA9F
BDF0
BD8A
BDD4
BCD2
BD9D
BDAA
BE05
BE07
BE02
BE30
BE09
BDED
BD91
BD6C
BCC3
BD19
BBBC
BCA1
BCD6
3C0E
BC74
BD82
BDFE
BCAF
3D33
3D4E
3CBC
BD60
BD87
3C5B
BDF7
BE28
BE0E
BDCE
BE3D
BE18
BE17
BDD7
BD3D
BD54
3C8D
3AD6
3C1D
BDEE
BDB2
BDB1
BCA3
BD32
BD42
BE03
BDF8
BDEF
BBFF
BE02
BDDA
BCC4
BD85
BD77
BDAA
BE37
BDD5
BE1B
BDCE
BDFE
BDC6
BCF3
BD12
BCD4
3D23
BA1B
BC9E
BDB3
BE12
BD2A
BD18
BDB7
BE23
BE44
BE59
BE5D
BE3D
BE06
BD4A
BD63
BD7A
BD85
BD99
BE02
BD18
BC5B
BDAF
BDCA
BCD8
BD21
BC3D
3D01
B995
BDBE
BDBD
BE0F
BD75
BD73
BBF9
BDDA
BDD2
BE32
BE83
BE8E
BDB8
BDDD
3C0A
BCCB
BD26
BE00
BDB2
BE1B
BD34
BACF
BD4D
3C78
3C4F
BD78
BBBC
3D6B
BD2B
BE39
BDFD
BD75
BC8B
BD2A
3C64
3C14
BCCB
BDEF
BE5F
BE97
BE58
BE4B
BDBE
BC59
BD9B
BDD8
BE1C
BE05
BD9A
BD69
BB97
3D0C
3C47
3DBE
3E14
3E2F
3DEF
BD39
BCEF
3CC1
3C73
3D1B
3DBC
3D31
BC65
3ADF
BE11
BE0D
BD7B
BDE0
BC66
3C9E
BB2B
BDBC
BDCF
BD8A
BC48
3DA4
3D9D
3DBE
3D81
3DB6
3E3C
3E23
3DEB
3D51
3D58
3DC7
3D8D
3DB4
3D81
3D04
3D77
3D0D
BCAE
3CA7
BCA1
3C97
3D4E
BC94
BC9D
BDCD
BD06
393E
BC89
3DB4
3E3F
3DC9
3DE6
3DDA
3E17
3E0E
3D9E
3D0D
3DD4
3E2A
3E1C
3E05
3D9D
3DD8
3D00
3D00
3D27
3BCF
3DB0
3E14
3D25
BD86
3C8A
BB25
3CFD
3D7E
3BA2
3D78
3E09
3DEA
3DDD
3E1C
3E14
3DA3
3D59
3D61
3E41
3E49
3E38
3DB1
3DF3
3D24
3D22
3D0D
3D8B
3CBD
3E38
3DCE
3DE6
BCE8
BB7E
BD1A
3BA2
BCE7
3CDA
3DC2
3DC4
3DC1
3DFD
3DB6
3E17
3DD1
3D02
3D9A
3E58
3E44
3E3A
3E24
3DA8
3DB7
3E15
3DD3
3D6C
3DA7
3E2D
3DC1
3DA0
3BF6
BD6C
3D7D
BD76
3BFE
3D5E
3D9F
3D72
3DC4
3DAD
3E1D
3DE2
3D0E
3DA4
3DB8
3E2B
3E3E
3E29
3E35
3D72
3D82
3DE9
3D8A
3C1A
BD09
3DC0
3CD3
B94F
BD95
BCAA
3C06
3C3F
3D7F
3A98
3B93
3D83
3D98
3D6C
3D83
3C95
3C93
3D86
3E18
3E47
3E3D
3E0B
3E16
3E03
3D02
3E08
3D08
3D8E
3D7D
3E21
BCDB
3DF5
3CE0
BDC1
3C1F
3D78
3DCE
3C10
BDA4
B7D6
BDB5
BDDD
3B7C
3C29
BC3E
39F3
3DB5
3D8B
3D96
3D91
3DDB
3DA8
3D27
3DBF
3D9B
3E16
3DB7
3C90
3E15
3D3C
BC4E
BD08
3CB6
3CFC
3D9F
BD8D
BDC7
BC9D
BD82
BDBB
BD6F
BD37
BD93
BDA0
BD95
BD85
BD0A
BDB9
BCD0
BC58
BDA0
BBDD
B8CC
BCEE
3DD3
3BAF
3E55
BD06
BCD0
3C97
3C4F
3D09
3C52
3C09
BDEB
BD85
BDA6
BDC1
BDC5
BDE2
BD58
BDB5
BDF5
BE4D
BE1B
BE34
BD74
BDCC
BDC4
BD0F
BC4A
BD6E
3BA5
BD97
BD86
BAD0
BC95
3D11
3D9F
3CEB
3CB0
BDC6
BE23
BDBC
BDC4
BD34
BD04
BDA9
BDCC
BE13
BE74
BE40
BE20
BE48
BE31
BDD0
BDB0
BCDB
BDA7
BDE5
BD6F
BD8D
BD63
3CC9
BD0B
3BA1
3BDE
3AEE
BD0F
BDBC
BDF4
BD6D
BDA6
BD55
BD7B
BDFA
BDD1
BE01
BE10
BE26
BE2F
BE27
BE0C
BDAA
BDB3
BD27
BC92
BE11
BC77
BD39
BB8A
3B14
3D07
BC8F
BD66
BD93
BD1D
BC48
BD1A
3D28
BD03
BDC6
BE0F
BE01
BDF0
BE07
BE04
BE31
BDF5
BD5F
BD41
BC25
BAA7
3D7B
BCE7
BD1D
BBED
3DBA
3C8F
3CD5
BCA0
BCAD
3D21
BD8C
3C84
3DDF
3C87
3B88
3CE7
3BA6
BCF4
BCA3
BC71
3C84
3CD4
BC86
BD98
BDC4
BBDE
BDA4
3C85
3D50
BD97
BB86
BD92
3CC0
3CD7
3CBF
3CAD
3CF6
BC8E
3D86
3DF8
3D5D
3D96
3D0C
3B44
BCBF
3C5A
BCAF
BC3F
3C11
BB4D
BA6C
BBD9
BCA0
BD6D
BCC6
BC05
BC3A
BC38
3D9D
3DA0
BCB5
BBF8
BC46
3C1D
BD11
BB90
BCC9
3CB2
3B87
3CA0
BBD4
BCEF
BCD7
BD44
BBD1
3D68
BD22
BD02
3DA2
BD11
BCBC
3C8E
3DBB
3D45
BD2C
BD89
3B5B
3B6D
BC95
BCB6
3A7B
3C66
3B0D
BB8D
BCAD
BD11
3CE1
3CF7
BB50
3CE9
3C6A
BB88
BC22
BCAC
3CD6
3B2E
3CEF
BCE8
BC84
3C46
BCE7
BCA4
BD07
BCA5
3CB1
3CB9
3CCE
BCB3
BC3E
BCB1
BCC6
3C48
BCD9
3C2D
BCF5
BD3C
3A8D
BCB9
BD57
BD68
BD90
BDB1
BDAF
BD0A
BCF6
BCB7
BCDA
BCBF
BCB5
BC95
BC2A
BBEA
3CE0
3CBB
BCD5
3BEE
BCA7
BB73
BC7F
3ABE
BCF5
BDA0
BD56
3CD9
BCE8
BB2A
3D22
3D56
BCBF
BDB6
BE44
BE61
BE44
BE27
BDB6
3D02
BBDD
BB3F
BD2F
BCF3
BB1D
BD11
BCE7
BD00
3CE5
3D00
3D03
3B09
BD3A
BDA5
3D9B
3D94
3D8B
3E22
3E5A
3E33
3E1C
3E29
3DC3
3D0F
BC25
BDF4
BDE1
BD55
BCC2
3C99
BA5A
BC08
BCA2
3CE9
3D9E
3D16
3CEB
3CB6
BC81
BC31
3CF9
BB5B
3A8A
3D46
3E12
3DD6
3E46
3E44
3E32
3DE0
3D52
3D14
3D48
3C48
3D5D
3D49
BC8A
BD68
BCEF
3D27
3CA1
3DC4
3E03
3DDE
3BA1
3CB9
3C51
BB09
3D06
3DA3
3CDB
3DD1
3DF7
3DEB
3DE3
3DBC
3DC0
3D55
3D8B
3D39
3CB0
3D91
3D6D
3D3B
3CAD
BC80
BB84
3D22
3CB9
3DC3
3E35
3E0D
BBDE
3AFF
3D0B
3DB7
3D88
3D85
3E27
3E21
3DA4
3DF6
3DF5
3DB9
3DB8
3D51
3D8C
3DF0
3DD4
3D29
3D1B
3D5B
3DA5
3D6F
3C87
3D6B
3D08
3DF4
3E6E
3E12
3DFF
3CA6
3DDC
3D62
3D20
3DF4
3E18
3DA5
3DB6
3E05
3E04
3DD0
3DB2
3DCD
3DBC
3D74
3DA2
3D45
3DD2
3E02
3E04
3DC0
3D97
3CF6
3D7C
3DAF
3E15
3DD3
3D5C
3CA3
3CBD
3B86
3D27
3D80
3D30
3DA4
3DA9
3D67
3D66
3D97
3DD8
3DD6
3E16
3DD1
3DF1
3E05
3DBB
3DF3
3E05
3DDB
3D7E
3D8B
3CA1
3CA1
3D98
3DA6
3D9C
3CBF
3C99
3D98
3D35
3DB2
3D99
3D6C
3D09
3D41
3D95
3AE9
3D83
3DA4
3DF7
3D85
3CD3
3D20
3D3A
3D9B
3C99
3B81
BC77
3AEC
BC0C
BCA2
3D9C
BB89
3CA0
3CF8
3CAA
3CE3
3DB5
3D14
3CD6
3D3E
BB92
3C8E
BC06
BCD3
BD35
BC90
3D87
BD47
BD8C
BD80
BD70
BAC1
BD67
BD83
BDD4
BDE5
BE3E
BE01
3D2C
3D98
3D95
3D1F
3D76
3C05
BC35
3CCD
BD04
BCDD
BD87
BD2C
BD85
BD8B
3CDA
BB2D
BCF4
BDB0
BE35
BD9A
BD21
BD27
BD4B
BDBF
BE3E
BE59
BE87
BE6D
BD7F
3D77
BD8C
BC21
3CC9
BC3B
BD70
BDAE
BD84
BD56
BD12
BD3D
BD7F
BC2E
BD31
BD16
BD9D
BD87
BD8A
BD91
BC0E
3D64
BA3B
BB27
BE0F
BE81
BE96
BEAE
BE70
3C7F
BD65
BC04
3C7D
3BE0
BCEF
BE15
BD9D
BDFB
BD91
BDD6
BDA3
BCED
BD8A
BD01
BCEB
BD88
BD9A
BD30
3CC6
3DBB
3CE8
BB3A
BD4B
BDC2
BE3A
BE19
BE20
BA7F
BD82
3D48
3D56
3DED
BC74
BDC2
BE1A
BE10
BD87
BD9A
BD9F
BD98
BDE1
BD84
BD97
BC75
BC91
BDCC
3BA5
3D0D
3CE7
3C78
BC73
BD92
BCE8
BB06
BD09
3D5F
BC26
3D14
3CE8
3CFA
3C7B
BDD6
BDD6
BE00
BDDE
BE15
BD79
BDAF
BDB2
BDBB
BC49
BC9C
BD86
BDF0
BD91
BBA0
3D44
3CB6
3D2F
BCDC
3BF1
3DE9
39AE
3D2A
3D78
3D22
3D8B
3DA1
3D7D
BDC1
BE2A
BE4C
BE38
BE34
BDB1
BD8A
BD94
BB98
3D68
BDBC
BDDA
BD99
BD25
3CB4
3D63
3D1C
3DB0
3D95
3D8E
3DAE
3C29
3D69
3DD6
BC9D
3CD2
3D05
3D6C
BCCC
BE0B
BE4A
BE71
BE34
BE13
BD9F
BCF7
BB4B
BD2E
BDE4
BE10
BD8A
3D03
3D9C
3D21
3D8B
3D35
3D9B
3DBC
3CB0
BC12
3D1F
3DBC
3AB9
BCC6
3D2E
3E03
3D27
3C11
BD30
BDA9
BDFF
BDF5
BDC1
BD6C
BD4A
BDB2
BE01
BCBD
3CF2
3D5F
3CD0
3CC3
3D5E
3D55
3DC9
3D33
3D28
BD6D
3C13
3D4F
BD03
3BA7
3DD0
3DFE
3DB0
3CF9
3D74
BC46
3C57
BDAE
BDBF
BD06
BD1B
BC9D
BD15
3D09
3D46
3D1D
3BB6
3C7C
3D68
3DD5
3DBA
3D31
3D37
BD7B
3D57
3C95
3AFC
3D8C
3DB5
3DC6
3D95
3DD1
3D1E
3D0A
3D9D
3DA8
3C5D
3C2E
3DA1
3DB4
3D8A
3D60
3D86
3C7A
BC40
BD55
BC42
3D88
3DDC
3DB3
BC9D
BB16
BCE3
BCC0
BCDB
3CC1
3D09
3D4F
3D03
BBDC
3D10
3D72
3D8D
3D10
3D8B
3D7B
3E10
3DDF
3DA8
3D8D
3D1E
3CA1
3D02
BCAE
3BA4
3C3D
3DE0
3E0D
BCC9
BD74
3DD4
BCD2
BCBB
3B9D
3D30
3C98
3B12
BB6F
3B97
3DC8
3D41
3D9C
3DAE
3D45
3D9A
3D5C
3CE4
3D34
3D27
3CD7
3D39
3C36
3C98
BAD5
3DBF
3D81
BC64
BD88
3B40
BD2D
BB20
BB41
3E02
3E07
3E0C
3DB7
3D95
3DC4
3DD7
3E21
3DFE
3E21
3D96
3D04
3CD6
3CED
3C94
3C2E
3CEE
3B82
3D1B
BD53
3D7E
3DB1
3CA9
BD14
BD43
BCBB
BCF7
3AC5
39DD
3E0F
3E3A
3DCB
3E00
3DFF
3E01
3E19
3DF1
3DBE
3E08
3E0B
3E37
3DF0
3D8B
3DDF
3D39
3D0A
3CA1
3CCE
3D44
3C64
3CE8
BD9B
BD96
BD01
3B6E
3C9A
BCC3
3DAC
3D8C
3DA4
3DEE
3E02
3E19
3DD3
3E21
3E19
3E34
3E2B
3DA5
3DFA
3E44
3E09
3DE0
3E2B
3B37
BA82
3DB6
3C59
3D73
BD2D
3C59
3C62
3D0E
3CB5
BCC0
BA8F
BDD1
BD8D
BCBB
BC9F
3D1C
3D5A
3D4F
3D18
3C83
3D70
3C69
3D64
3DC4
3D62
3CD0
3E06
3BB1
3CAC
BD24
BCCE
BCA7
3CEB
3D0E
3CD0
3BBC
3C2C
BCCD
3AE7
3D4D
3D9B
3CC4
3B7E
3D42
BB67
BBC4
3B21
3D4A
3E23
3D52
3D0D
3D06
3DC3
3D4B
3D36
3B8B
BDC3
BD8A
3CE6
3AF0
3CB7
3BB1
3CEA
BCEB
3CDE
3CD4
BB95
3CBB
BC32
3D11
3CF1
3D11
BC8A
BC71
BC75
3B8A
BCE9
3D62
3D15
B766
3BEE
3C7A
BB45
BA68
3CB8
BCA8
3BB0
BC9A
BA5D
3CD5
3D03
3CA4
BCBD
BCCF
3CD5
BCA1
BD81
BDD3
BE13
BDCE
BD93
BDE2
BDFE
BDD5
BDFA
BC58
BDA8
BD89
BE13
BE10
BE06
BDC2
BDEA
BDE3
BDA1
3CF0
BCE6
BC63
BCFB
BB1C
BC48
BD08
BDFF
BE1B
BCE7
BD8A
BE03
BE28
BDB1
BE10
BE36
BE13
BDC6
BE3F
BE60
BE4C
BE0B
BE3E
BE6E
BE2F
BE59
BE24
BE11
BDDC
BDF1
3BB5
BCA1
BC23
BC0D
3CB3
BDE3
BDB9
BCD6
BDC2
BE0F
BE1A
BDF2
BDF0
BDD2
BDDA
BE55
BE40
BE6C
BE6C
BE56
BE62
BE2E
BDE2
BDC6
BE2C
BE13
BDDD
BDB5
3C9E
3CBA
BC52
BCCE
3C95
BD44
BD54
BDB6
BCF0
BC71
BD3B
BC21
BD2B
BD87
BD9E
BE00
BD87
BDCE
BE42
BDB8
BD98
BE2B
BDFC
BDCE
BDC4
BB94
3D2D
BC2E
3D7F
BD52
BB06
3C03
BD2D
BD2E
BDCC
BC3D
BCC9
3BA9
3DBF
3D73
BA82
BAA0
BCFC
3A67
BD83
BD7D
BDC8
BD79
BDA2
BE1F
BDED
BDE8
BD90
BDEC
BCA4
3CEA
3C8E
BD60
3CF1
BDB8
3C1A
3D1B
3C50
3D9B
3D14
3CBB
3D8B
3D24
3C57
3C92
3D1A
3D0C
3ADA
BB83
3D04
3B5E
BCF7
BD19
BDF1
BA81
BD01
BD89
BE08
BBC5
3D6A
BCD4
3CAA
BD70
3E00
3D8D
BC20
BC6A
3DA3
3D5C
3D36
3D47
3CDD
3D93
3CE8
3D1C
3C1E
3C0C
3D7A
3D59
3AF2
BBEA
3C19
3D33
BB9B
BDAB
BD89
3CD8
3CE7
3C05
BD46
3DA8
3E0E
3D69
BD18
BCA1
3D87
3D03
3D58
BB06
3D0C
3D6B
BC3C
BCB0
3C8D
3C81
BB24
3CE4
3B9A
BD37
3C3A
3A70
BD8A
3CD0
3D4B
3D1D
BAB4
BD19
3CC5
3D93
BB1C
3C25
BD60
3D29
3D65
BCB4
BCC8
3D66
3D2E
3D9D
3CFE
BC56
3C51
3D91
3D84
3CFF
3CE9
3C9F
3C49
BD56
BD25
BD23
3D99
BC1D
BD2F
BCAA
3D30
3D62
3D65
BD1F
BD1F
3D46
3D51
3D83
3D65
3D32
3DAD
3D38
3D8B
3C89
3CC9
3DE5
3DD4
3C54
3D4A
3D87
BB1A
BD49
BD17
BD8B
BC79
3CC5
3B41
3BBC
3D25
3D66
3D80
3AC3
BB27
3CF0
3DC3
3D85
3DAE
3DA0
3D90
3DF0
3D74
3D3E
BC21
3D16
BC90
3D09
3C8A
3D91
3D91
3C35
BD26
BDE4
BDD0
BD62
B9C2
BD57
3D19
3DD2
3D99
3D37
3D85
3C7C
3D83
3C28
3DA2
3D0D
3D39
3D8A
3C01
BD2F
BD8A
BC6A
BD32
3CCF
3C39
3D4D
3D41
3D0B
BD0F
BE10
BE14
3C8E
3DB2
3CA3
3C22
3D97
3DA4
3D85
3D18
BCC4
BD45
3D7B
3CDC
3C8A
3DA8
3DE0
3D4C
BD80
BD40
BD2E
BC72
3D01
3D95
3DC2
3D37
BD05
BD39
BDA0
3D3A
3DE0
3E50
3D24
BD4A
BCF3
3DAC
3D20
3DAE
BC86
BC8D
3D26
3CC6
3D13
3DB4
3D96
39EF
BD67
BD82
BD8A
3D06
3DFE
3E29
3E0F
3DEB
3C4E
3D21
3D34
3CE5
3DF7
3E4F
3D91
BD3C
BD7E
BDD5
3D48
3DE0
3D6A
3D1C
3D98
3C95
BD35
BC43
BD4E
BDFA
BE1C
BE06
BBA7
3DD6
3E36
3E1F
3E14
3D0A
BCC0
3BD5
BC9A
3D8A
3D54
3E1E
3DAF
3BAA
BDA9
BDEB
BD00
3DA1
3CA5
3D41
3DA2
BC3E
BD15
BD82
BD99
BE31
BE38
BDC9
3DCA
3E21
3E76
3E1F
3D82
3D85
3D6E
3D48
BCB5
BCD6
3D16
3E46
3DE9
3C6E
BD50
BD68
BD3D
3D27
3BF6
3D71
3D01
3BF7
BCC3
BD6E
BDA6
BE23
BD8D
3D2E
3E2C
3DE6
3E17
3DFD
3D17
BA11
3CB7
BCA2
BD01
3C88
3E30
3E2E
3E08
3D94
BD24
BCA5
BDCE
3C9A
3D19
BB84
3D35
BC4F
BDD0
BDA9
BDC6
BE10
BD23
3DED
3D92
3D82
3D6C
3D0C
BCC2
BC36
BCB7
BD3B
BD8E
3DA1
3CAB
3DD7
3CA7
3CE7
3D8F
BC72
BD66
BD1C
BCC9
BD39
BD87
BDC5
BE28
BE2A
BE09
BDF7
BB64
3D42
3BFE
3C9E
3CBC
BD39
BC81
BD9A
BDD6
BD3A
BD3D
BBC4
3C9A
3DD7
BC9C
3CD1
BD8F
BC78
BDAC
BD2E
BD1A
BD9B
BDA5
BDAC
BDCE
BDC5
BD8E
BD3B
3D00
BC82
BD20
BD57
BDAD
BDF9
BD82
BE34
BDF7
BDB4
BD0B
3D84
BC62
3D05
BC6A
3D09
BD3E
BD1A
BDE4
BDA8
BC9D
BD38
BE1B
BDB6
BBA9
3CB5
3C65
BC98
3C61
BD46
BD80
3B2E
BDCF
BDED
BE3F
BE1E
BE13
BDEC
BCBC
3DC4
BD42
BDAB
3C9A
3AE0
BBA8
BDC4
BE08
BDFC
BD1F
BD53
BC33
3D9B
3D9B
3D98
3D0F
3D34
BCC7
BCF8
BCE1
BD01
BDD6
BE23
BE2A
BE41
BDE8
BD24
BC43
3E22
3C6C
BD84
3C42
BB33
3B35
BD89
BDFE
BDC1
BC81
3B33
3D46
3D99
3D4B
3D17
3D2E
BC03
BD6C
3C2F
BD83
BD4F
BCC2
BD97
BDA8
BD8C
BD26
3C8C
3D11
3DF9
3D81
BDC1
3C94
3C69
BD09
3C98
BDBA
BCF4
3B3D
BB81
BC5E
3C4E
3B2B
BD80
BDC1
BD71
BDAA
BD51
BD36
3C17
3BA0
BC08
BC9A
3C51
3CA6
3D1E
3D90
3DB0
3DEF
3CBB
3CC8
BC8A
BB4A
BD99
3D22
BC18
BC5F
BD3B
BD84
BD62
BC93
BC69
BC90
BD89
BCD7
3CA0
3D87
3CEC
3DAE
3D16
3CBB
3D57
3D5A
3C14
BD18
3C1E
3DA0
3D31
3CD7
BC42
3CB3
BCE4
3C90
3C9D
BCEE
3C1E
3D9E
3D8F
3DB6
3D8E
3D01
3D83
3DA7
3DC6
3DC1
3D9E
3D21
3DDB
3DE2
3DA7
3DDF
3DA1
3CDE
3D86
3D5F
BCC7
3CA3
3C88
3CF6
BCA5
BD0D
3DBD
3D28
BB7E
3D90
3D3B
3D7C
3E18
3CB5
3D84
3E33
3E12
3DD9
3DDD
3E0B
3E6B
3E12
3D27
3DA9
3DF3
3D66
3C89
3B0D
3C90
BC44
BC8E
3D02
BCF1
3C57
BC65
BC37
3C9C
3B72
BCE1
BBFC
3CEC
3CFF
BC7A
3C54
BCA6
BCA9
BC98
BC5C
BBF6
BAB9
BB81
3C9B
3CDC
3A94
BD0F
3CF7
BD08
BB2E
BC0F
3CAC
BD0E
3C8E
3CD4
3B16
BD26
BD49
BC8F
BC0B
BC5C
BD8E
BDA9
BD30
3C7B
3C89
3C54
3BCA
3B9F
3B86
BC43
BD22
3D10
BC57
3CA5
3C86
3D07
3B5A
BB3D
3D0E
3D11
3C93
BD1C
3C08
BC29
BDBE
BDE9
BD67
BD79
BD76
BD07
BD34
3B30
3D36
BD14
BDD7
BD97
BD71
BCCB
BD0C
3BFD
BAD8
BD46
3C8C
BC03
3C51
3CAE
BCF7
3DDB
3D83
3CE6
BC51
BB46
BC30
3D81
3B07
3D37
3DDC
3DE5
3D80
3D11
BD55
BD06
BD4E
BDD1
BDFA
BD44
BDF8
BD43
BD1C
BD82
3C99
BCCC
BC0E
3C8D
3C1B
3E02
3DB0
3D1F
3D40
3DAB
3D95
3D62
3DBE
3DE9
3D8F
3E0F
3D90
3DC0
3CFF
BD10
BDF8
BD91
BE24
BE0D
BE04
BE1E
BDFA
BD34
BCAE
3A11
3C80
BB90
3BAB
3DB0
3D84
3DB4
3DCE
3DBC
3D90
3D8B
3D0C
BBB2
3D99
3D75
3D2C
3D1F
3D84
3BCF
BDDE
BDB8
BE07
BDED
BE29
BE3F
BE20
BDAC
BBCC
3C2B
3D82
3BF5
3D8F
BBDE
3E19
3DAF
3CD1
3D42
3D44
3D20
3D83
3D65
3DBB
3D41
3DDD
3DE5
3D69
3DA8
3CFF
3C8F
BDCA
BDF6
BDA8
BE45
BDF5
BE00
BD0F
BB22
BCAA
BC14
3E06
3C94
3E03
3DBC
BBE5
3D1A
3CE4
3BB8
BC8F
3D00
3C65
3D9D
3E02
3DBB
3DAC
3DB7
3D3B
3BBB
BD2D
BD67
BDFF
BE07
BE1C
BE00
BDD6
BCFB
BD92
BDB1
3DEF
3C51
3D63
3DF8
BB19
3B97
3D3E
3CEB
BC9E
3D76
3CB7
3D20
3DBE
3DBD
3E13
3DFD
3DD2
3DCA
3D2B
BCA1
BD4C
BCD5
BE28
BE78
BE0A
BD73
BD2A
3CC0
3D85
BC78
3E06
3DC1
3DA3
3DCE
3D59
3C86
3C4C
3BFD
BD62
3D30
3DC0
3E27
3E34
3DF0
3E12
3D35
3CF5
BC4E
3C40
BD14
BE0E
BE5A
BD9C
3D62
3D77
3A35
3D8B
3D72
3E06
3D98
3D86
3DBD
3D1A
BD53
BD34
BD5F
BDBF
BCA3
3D93
3E10
3DAD
3DB1
3DC1
3CD7
3D1B
3CB3
3CBD
3D09
BE0B
BE39
BC56
3D65
3DBB
3C85
3D37
3DE0
3E05
3DE9
BC04
BCB0
BD75
BD6C
BD88
BD9C
3C68
BD0C
3D8D
3DF7
3DDE
3D85
3D9C
3DD2
3DB2
3DB8
BCF4
BC8C
BE14
BE36
BBA6
3D37
3B85
BC55
3D2E
3D19
3DB4
3D8D
BBBF
BD91
BDC6
BCD4
BD4D
BD7B
BDAA
BDA3
3BA4
3DCF
3DFC
3D76
3E00
3DA5
3C8F
BD87
BDFB
BDE7
BDD8
BE27
BCBB
BD44
3CA2
BD1C
3CA7
3DBB
3D5F
3CAF
BDD7
BD87
BDC8
BCD4
BD0B
BD36
BDC6
BD83
3D1D
3E12
3D44
3D9C
3D71
3D45
BCEB
BDF7
BE07
BDE6
BDFE
BE04
BD2B
BC3E
BA0C
BD4F
3D09
3DE7
3D36
BBC4
BE13
BDA8
BD85
BD04
BD29
BD7C
BD95
BD55
3D4E
3E03
3DC9
3D76
3D98
3CD0
BD3E
BDAD
BD99
BD91
BD89
BCAA
3D07
3D29
BD82
BD86
BC2F
3C9F
3D5D
BD9E
BE1C
BE01
BDEF
BDD6
BD58
BD8A
BDB5
BC82
3D46
3D8A
3D97
3D31
3D66
BC30
BCFD
3A83
BB70
BBD6
BBFD
3CAE
BD87
BD8B
3D47
BC8D
3DDA
3DE2
3D26
3B99
BE2E
BDE9
BDBE
BD33
BC18
BD59
BD78
BC93
BB23
3D2A
BCB9
3D0B
3C0F
3D02
3D0A
BC92
3B47
3C8A
3CCE
3D72
BD26
3C0F
3D96
3CCE
3D8A
3D84
3D0C
3BBC
BE0A
BE0A
BDB8
BBA5
BD2B
BDC0
BD80
3A55
3D97
BC0E
BC23
BD37
BB0F
BD23
3C64
3CB0
3D68
3DA2
3CC6
3CEF
3D34
3D8B
3CC4
3DE2
3DB5
3DDB
3D8F
BCDF
BD3D
BDDA
BDD9
BD99
BD45
BD4D
BD43
BDAC
BD5F
3961
BCBA
BD0C
3C6B
3CFD
3D76
3C93
3D30
3D63
BCA7
BD87
3CAA
3DC9
3DD2
3D01
3D6C
BCD4
BC54
BCDE
BD7E
BD5B
BD9D
BD9D
BD62
3B2F
BDD6
BDC7
BCEE
BD86
BD29
BACC
3C3A
3C82
3DB6
3C07
3D91
3D6A
3C37
BC49
3D3E
3CDD
3D9F
3CE4
BC17
BD1E
3DA0
BCF1
BD73
BD08
BD04
BD23
3CF5
BB9D
BDB0
BD89
BD6D
BCCD
BDAD
BD31
BCCF
3C58
3D96
3DA6
BB97
3CE9
BC70
3C2E
3C93
3D24
3CBA
3CA6
3D88
3BEF
3DD2
3C30
BD83
BD04
3C94
BCD1
BD83
3C9D
BC2E
BD5B
BD42
3A81
BBD1
3D1B
BCAD
3CDC
3D67
3C54
BC55
BCDC
BD6C
BD08
3D1D
BD77
3CC8
3B4A
3CDF
3C95
3D5C
3C85
3D04
3C73
3C41
3B71
BCAB
BC08
3C3A
3BA1
3CB7
3CDB
3BA4
3D5D
3D3A
3C9B
BBA6
3C15
BD85
BD4A
BD49
BDA6
BC04
BD33
BD09
3BB2
BCAD
3D95
3DE0
3D9E
3C2E
3C32
3D18
BD4E
BCC5
BA8B
3D19
3BD2
3AA0
3C36
3C82
3D1D
3D07
3D8A
3C36
BD76
BDCB
BDBF
BD3D
BCD9
BCFF
3C42
3CE9
BD0D
3D02
3D56
3DFF
3E51
3E1C
3E19
3DF3
3D27
BD02
3D64
BBAC
3A8A
3C9C
3D0F
3D30
3BA3
3CAF
BD94
BD61
BD0D
BDA5
BDBC
BCD7
BD5E
3D54
3D5E
3CBD
BCE2
BC3A
3DB9
3CFA
3D96
3DF7
3E0A
3E44
3E37
3E0C
3DF8
3D97
3DF2
3DA6
3DCE
3D3F
3DB2
3CD0
3D32
3DA5
3D4D
BDBF
BE1A
BDEC
BCB7
3CBF
3CF7
3AB7
3D01
BCDC
BB92
3D5B
BCC6
BCCE
3BEC
3E3D
3E38
3E1E
3E5D
3E18
3D95
3E14
3E4E
3DF2
3E0D
3E64
3E5A
3E3D
3DD2
3CF5
3B2D
3D88
3C56
3D56
BCBE
BC66
3C93
3BC4
3C1B
3D0E
3DC9
BC83
BB8A
3D41
3DAE
3D53
3D95
3D41
3C83
3D95
3E2C
3DD9
3DDD
3DFF
3E1A
3E49
3D25
3C8B
BD2C
BC8D
BC48
BC5F
BC4D
BC03
BCB0
BBB2
3CF4
BD0E
3C43
BC6E
3CDB
BCB2
3BF4
3C84
3C93
3CEF
3BA8
3CDE
3DC9
3D01
3CB0
BBD6
3C97
3B71
BD00
BD10
BCE2
BCCD
3C1E
3CA8
BC3B
BCB6
3C9F
3C0C
3C2B
3CC4
3D38
3D76
3DD2
3DF1
3DDA
3D30
3DA5
3DEE
3E0C
3DD5
3D49
3E29
3E75
3E3C
3E33
3DCC
3E22
3D92
3DF7
3D5F
BC6B
BCA0
BC0D
BBC3
BB83
3C1C
3C8A
3D86
3DD8
3B68
3DC5
3E1B
3E0B
3E08
3E21
3E08
3E38
3E14
3DCD
3E21
3E10
3D34
3E17
3DAB
3D8F
3E0B
3DAF
3DA7
3D8A
3CCF
3C93
BBAE
39B2
3C14
3C86
3DE4
3D9C
3C0F
3DDD
3D60
3D95
3DD4
3C89
3D60
3D61
3DA3
3CB2
3CD4
3D8A
3CDA
BAD1
3CFE
BD03
3C48
BBD9
3BF9
BCC9
BD89
3C8D
BB1D
3CEA
BB74
3C2F
BD74
3C70
BD68
3D4F
BAD8
BCE4
3C79
BD75
BD2C
BD4C
3CA7
3C81
3C0D
BD18
3CA0
BD1D
BD2A
BD1C
BDBF
BE0E
BDD1
BE5E
BDAE
3B94
3E06
BC73
BD01
3DBC
BD82
3B6F
BD90
BD42
BCAE
BD14
BD30
BCE5
BCB4
BCE8
3C1F
BCAE
3C61
BD0B
3C89
BBFF
3D04
BDB1
BD97
BDE0
BE25
BE0D
BDA5
3D07
3DA6
BC94
BDB4
BD1A
BD5A
BD02
BDD4
BDC4
BC8A
BD7A
BD09
BC0F
3BB0
3C9E
3D24
3D0F
3C80
3D8F
3D27
3D30
BBCB
BD9B
BDC8
BE06
BE16
BE44
BDEC
BD96
3A9F
3CE3
BC9A
3C5B
BDBB
BCD9
BD8B
BD2F
BC70
BD86
3BE8
BCC4
3D10
3CBF
3DAE
3D6B
3D1B
3D82
3D5E
3DBE
3CFE
BD1E
BC78
BD6D
BE12
BE12
BE20
BDF8
BD1C
3DB7
3D25
3B1C
BCE9
BD60
BD4D
BD30
BD41
3C06
BB35
3D00
3D30
3CC4
3D9A
3DA1
3DB4
3D34
3CBE
BCAA
3D85
3C0D
BD5A
BDDA
BDB7
BE1F
BE32
BD8F
BCFD
3D7E
3CCE
BBB0
3D8B
BCCB
BD55
BD82
B964
BC61
3D0F
3DA2
3C49
BC22
3D7F
3DD7
3D15
BD33
BD58
BC66
3BBF
3BD6
BD06
BDD6
BDAE
BDB9
BE54
BE06
3D1E
3C50
3ADC
3D07
BCE8
3B95
3D89
BC04
BC1B
3D29
3D0C
3D90
BCE7
BD44
BA9F
3DC5
3802
BD5D
BD1A
BD27
BC9F
BCEB
BCF8
BC8C
3D7C
BDBB
BE3A
BDF0
3CE5
3CED
3D9B
3D0A
BD1A
BC57
3D26
3D29
3D56
3D83
3DA0
BD2C
BD81
BDC7
BD96
BC6C
BD9A
BD90
BDD5
BD6A
3C80
3CAE
3DB7
3D2D
3DBA
3DB0
BDEC
BE1C
3CB3
BCD8
3D09
3D9D
3965
3D31
3D44
3D60
3D4D
3D9A
3D3D
BDA8
BDCB
BE3A
BE1C
BD58
BD9B
BD46
39C8
BB55
BCD7
BCB7
3D73
3DF6
3E50
3E3D
3D2E
BD86
3E18
3CD5
3BB3
3C8A
3DBE
3D45
BC08
3D23
3C96
3D24
3D09
BC4F
BD86
BDF0
BD64
BB96
3D1F
3CB5
BB86
BD26
3C78
BC8F
3C93
3DE7
3E36
3E6B
3D99
3D82
3DCA
BD9D
BD14
BC05
BD26
BDBF
BD09
3D17
BC6A
3C7C
BC0E
3D4C
3D4B
BC1D
3D39
3D11
3D87
3CED
BD80
BAC5
BCA6
3CAC
3DA7
3DEE
3E00
3E23
3DD7
3E0C
3DA7
BD20
BD51
BDAF
BDC7
BE03
3BA5
3CFC
3D37
3C83
3A0F
3CA8
3C01
3D76
3D1A
3D9A
3C77
3C0D
BC97
BB5D
BD7F
BC46
3D19
3C85
BB9F
3D97
3E0A
BC81
3D46
3CD0
BC57
BC41
BE25
BD0C
BC2B
3B95
3C2D
BD2F
BBFC
3D9F
3D87
BBA1
3D39
3D63
3C35
BD0A
BD03
BDC9
BD74
BD95
BD19
BCF0
BCCA
3CC7
3E51
3DD7
3D85
3BBF
BD26
BD56
BDF8
BD7B
BCD6
3B4A
BCB9
3CB0
3D20
3DAC
3D96
3D1B
3D99
3D94
3C37
BD79
BD1A
BD84
BD79
BB67
3B71
BD06
3C50
3D76
3E82
3DD0
3D91
3D3E
BC98
BD89
BE02
BDA8
BDA7
BDDF
BD55
BD23
3D9F
3DBE
3D8D
3C8A
3CF5
3C17
BC76
BDBC
39B1
BB98
BD35
3B5B
BCAA
3CCA
3DBC
3E22
3E8E
3E1C
3DD4
BB82
3D33
BD86
BE11
BE0A
BE17
BD93
3C0D
BC3A
3D4A
3DC6
3D8F
3DC1
3DAC
3D3B
3B13
BC84
BD8D
3AAF
BCDC
BC9E
BC38
3D02
3E01
3DFF
3E6F
3DF2
3DB9
3CE9
3C9D
3BE9
BD91
BDC8
BDE3
BDC5
3BE2
BD65
BA06
3D68
3DCB
3DE2
3CE8
3D3A
BD0E
BD2D
BD85
BD20
BBD0
BCAE
BC3A
3D84
3D10
3E23
3DF5
3DC4
3D72
3D91
BCC7
BCFA
BD3A
BD55
BD50
BD1F
BCE7
BCD0
3C62
3D80
3CED
3D41
3CA5
3D83
3C95
BD04
3CA5
3C15
BCF6
BC18
BD27
BCCD
3CCA
3D97
3D64
3DE3
3D15
3D47
BC86
BC3C
BC64
BCD9
3D32
3C9A
3B21
3D61
3D40
3D58
3B77
BB49
3CF0
3C33
3CA6
3D09
BD21
BC4F
BD7E
BC55
BCA2
BD2A
BDA8
BCCD
3CBA
BDA5
3C99
3B4A
BCA0
BD6B
BDFB
BDB0
BD9D
BD7E
BCE7
BD10
BCAC
BD85
BD13
3A94
BC82
3BEC
3CF6
BBC0
BD2F
BC87
BD9A
BD69
BBEE
BB1B
BCED
BBC5
3D14
BD6C
3D0C
BCD2
3C0E
BD06
BE0B
BE23
BDB6
BDBA
BE04
BD9F
BD73
BD77
BDDA
BCFF
BD96
BDB8
3CE7
3BAA
3B4B
3B92
BD84
BD58
3C38
BC42
BD03
3DA1
3D5E
3D4D
BACC
3CA3
3C87
3C3B
3C87
BD6E
BD96
BC22
BD80
BCA1
BC6E
BDAA
BD9A
BD76
BD5D
BD19
BC8C
3D1C
BC31
3C40
3D79
3D8F
3D34
BDA8
BD3E
3B71
3D00
3AD1
3CA8
3C92
BAE7
3BF4
3DB0
3C2F
BCB3
BBA9
3DB1
3DFD
3DD9
3DCF
3DC2
3DC8
3D88
3DE8
3DA3
3DB1
3E0D
3E02
3E28
3E1E
3DD1
3D9D
3D8E
BBCB
BD7A
BB15
3C15
BCEB
BCB1
3BAE
BD0E
BD48
BCDA
3CB7
3C56
3D36
3D29
3E0A
3DC7
3E0D
3DB2
3DC9
3D85
3E0C
3E0E
3E41
3E54
3E2F
3DA5
3DF8
3DA4
BBC9
3CD3
3CF1
BB4C
3CE6
3C99
3CB1
3CC6
3B88
3C16
BC60
BB55
3CE2
3C92
3CA6
BC68
3C4C
BCC8
BC7B
3C9F
BAFD
3CC3
BC6D
3D09
3C35
BC1B
BCD5
3C1E
BD02
3C66
3C9E
BD06
BC4C
BD03
3C95
BCC6
3C90
BD0C
BDA5
BDBD
BD96
BDC6
BD75
BD79
BDCF
BDD6
BAA4
BDC5
BE57
BE12
BD2F
BD2A
BD91
BD95
BDBC
BD92
BC5E
3BC7
BC85
3CFA
3B1E
BBAC
BCDA
BBCC
BD2F
BDA5
BD94
BE1C
BDD8
BE0A
BE3B
BDDB
BDEF
BD2D
BDA4
BE19
BE15
BDAD
BE2C
BD88
BCB7
BD85
BC40
BDD2
BD27
BD44
BC79
BC8F
BC79
BBD6
3C40
BD8D
BD05
BCBF
BDBA
BDFF
BE58
BE10
BE07
BE36
BE1C
BE51
BE13
BE26
BDD1
BE13
BDDA
BD09
BD62
BD5A
3C7A
BB8E
BCEB
3BC8
BD6B
BD08
3CFD
BB0C
3D8C
BD2D
3E17
3E1C
3D5E
3D02
3C73
BDE0
BDB3
BDA2
BCF0
BDD9
BE12
BE4E
BE1D
BE4B
BDF8
BB9F
3CC5
3D83
3D2C
BC80
BD8B
BDC1
BDF5
BD84
BCB2
3D0E
3D59
3CFC
3CD4
3E27
3E1A
3DD3
3DA2
3D55
3A4B
BCC5
3C24
BD21
BD81
BD92
BDF3
BE16
BDAD
BD08
3C94
3D69
3C47
3D5E
3CCF
BD3C
BDA0
3CA3
BC73
BD57
BBBB
3E32
3D41
3D32
3DF1
3D38
3DAD
3CCB
3CBE
BC0C
3CDA
BD95
BDC6
BD8E
BD58
BCC6
3CA2
3CA1
3D82
3D9D
BC32
3D40
BD0A
BBEF
BD7E
BCC6
BC43
BDA2
3D9F
3E27
3D75
3C48
3BD8
3CA5
BC0A
3D7C
BA22
BC0C
3CC7
BCE5
BD88
BDCB
BD53
3C22
3D9A
3DD1
3DA2
3D48
3CB3
3CC3
BD0D
BDB3
3D0D
BC82
BD6F
3D76
3CCB
3DC5
3D7F
3D57
3BFF
3CF2
3D51
3CC3
3D3B
3A24
3C4B
BD39
BD4A
BDE9
BDAD
BD01
3DC5
3D89
3DA3
3D8C
3B58
BD58
BD84
BCE3
BCA3
BD08
3CDA
3E09
3D01
3D9F
3D8B
3CB1
3C60
3D26
3D97
3D94
3D25
BB85
BC8E
BD2E
BD82
BCC6
BD4B
3D2D
3DE4
3D9C
3D8A
BC1F
BB60
BDC2
BDB0
BDF4
BD86
3C0F
3CCB
3DFB
3CE2
BC9F
3D2B
3CAD
3CC7
3C17
3D0F
3D8D
3D77
3D07
BC97
BE0C
BE04
3B76
3D54
3DF8
3DC9
3D93
3D51
3D33
3C6D
BE0F
BE13
BE0A
BE1B
BD1B
3CC0
BC94
3E12
3C87
3D00
BC9A
BC92
3CCE
3DA2
3DD3
3E00
3D89
BC51
BE17
BD5E
3DD6
3E17
3E1F
3E09
3D55
3D7A
3B14
3C6B
BE23
BE5F
BE66
BE01
3D20
3D26
3DB5
3E09
3DEF
3D6C
3B18
3CD0
3CE7
3DBD
3DAD
3DD8
3D18
BDD0
BE16
3C32
3E14
3E4A
3E40
3DFC
3DE5
3D9B
3CCB
3C9F
BD53
BDE3
BE27
BDF9
3DBB
3CDF
3D76
3DEA
3D96
3DF0
BAC6
3CBA
3C04
3D49
3C26
3CCF
BD21
BDB3
BDC9
3DB7
3E4E
3E63
3E1F
3DC8
3D9F
3D95
3D34
3C96
BD2E
BDEF
BD8E
BDEE
BCF3
BD9E
3D78
3E04
3DCA
3DBA
3C7D
BD04
BD64
BCBC
BC0E
BD4A
BD59
BD87
BC6C
3DDC
3E32
3E6B
3E17
3DC1
3E03
3C8E
BC3B
BCFF
BD1B
BE1E
BD88
BE02
BAB7
BCC3
3D18
3E24
3E05
3DB1
BD1B
BD90
BCB3
BC9B
BD6E
BD2A
BD95
BD30
3D58
3E19
3E3B
3E36
3DD4
3DA8
3D97
BD0F
BD4C
3D17
BDB9
BE59
BDDF
BCE5
BC98
3C41
3CB0
3D10
BD29
BB13
BD72
BD6D
BC2D
3C7F
BD2B
BDE6
BD8F
BD56
3D02
3E02
3DD2
3DF0
3D87
BCFF
BD0E
BD23
BD88
BDB6
BE19
BE1F
BE1D
BD67
BCA7
BCB9
3D54
BD39
BDF3
BD9A
BDE1
BDED
BD8B
BCFE
BDDC
BDAB
BD8E
BD91
3B38
3DF3
3DC8
3D3C
BD68
BD85
BDEB
BE24
BDD5
BDC0
BE42
BE24
BDDE
BDED
BCF5
3DCB
3CD1
BC04
BDD6
BE0C
BE1D
BE3D
BDE9
BE17
BDDC
BE19
BE07
BDAC
BD32
3D56
3D6A
BCA2
BD83
BE03
BE3F
BE05
BDCE
BE4B
BE75
BE75
BE30
BD8A
3D97
3D43
3DAA
3C27
BD33
BDE9
BDE7
BDEA
BD85
BDD0
BE1D
BE3A
BE06
BDAD
BDB4
BD0B
BAAC
3D5F
BCEE
BE02
BDDE
BE0C
BE0A
BE3E
BE80
BE6B
BE27
BCCC
3D4B
3D10
BBFB
BBDE
B9DF
BDBA
BD8C
BDAE
BDB5
BD4B
BDDF
BDA9
BDC8
BDE2
BDAE
3C8C
3CB0
3D56
3C04
BD73
BD31
BDC3
BDA3
BE17
BE3C
BDFC
BDCD
BD25
BB4A
3D56
3D2B
BDCE
BC48
BCAB
3D09
3CF1
3C06
3D61
3B00
BC01
BD6C
BD78
BDC6
3C5B
3C6E
3D80
BB06
3B3C
BB86
BD41
BD0E
BD86
BDC6
BCD3
BD5B
BDF6
BD05
3D85
3D55
BDB0
BD80
BCE2
3DA8
3E0E
3DBC
3D81
3CEA
3C7E
BD33
BD33
BD90
BD3B
3D2E
BD28
3B4A
3C8D
3CCA
3B1E
3C28
BCC7
BDB1
BC6A
BBB6
BD37
BCFA
3CF6
BCA1
BDAB
BE2E
BCB9
3CFB
3E0C
3DF1
3C74
BD50
BD87
BDA0
BDA2
BD62
BD75
BD1B
BCEE
3C9D
BC48
3D37
BC3D
3C91
3C27
3CC5
3D3C
3D14
3D58
3D0F
3C85
3C80
BC1C
BC36
3D9E
3E2D
3E20
3DAE
3D75
BCBB
3C5C
3B70
BD73
BDB8
BDB2
BD9A
BD1C
3BB6
BC8E
3C96
3BAB
3D77
3CEC
3BA8
BC8E
B8B7
BCC1
BCB6
BC9D
3B25
BCF4
3D59
3DBC
3DB5
3D1F
3DA4
3D09
3D25
3B61
BC30
BD24
BD98
BC2E
BD3F
BDB4
BCB8
BC82
BD83
BA92
BC19
3C4B
3D25
BD92
BC3A
BB30
3A7D
BCDC
BCA7
3CDD
BB69
BBAA
3D0C
3DF6
3E19
3E08
3E0E
3D90
BC86
BC8D
3C91
3C2D
3C83
3D95
3D4E
3DB7
3D10
BD2C
3CE1
3D85
3D9E
3DCB
3D25
3BDD
3CB8
BC99
BCCB
BD0C
BC17
3DAD
3CD0
3D0D
BCB3
3BAA
3CE1
3D06
3B5B
3C02
3DA6
3DDC
3DB2
3DC7
3E32
3E1F
3E24
3D68
3E1F
3D73
3D77
3CE8
BAA1
3BA0
BD09
BBD9
BC8B
BC8E
3BFA
3CAC
3C7C
3CE9
3C41
BBF0
3C8D
BBB4
3CFB
BD43
BB9D
3CF9
BBBD
BCBF
BCB9
3B35
BCB3
BCDE
BA56
BCA1
3CAF
BC60
BC04
3CA2
BCC7
BB50
3C08
3D05
BB88
3B3E
BC17
BD6F
BD9F
BD12
BD2B
BCAB
BD9A
BC68
BCD2
BD8D
BD9E
BE0A
BE0A
BDF0
BC3C
BD25
BD9C
BCCD
BD0A
3C3D
3BC7
B9E8
3CAE
3CE4
BC2A
BD23
BBAC
BD71
BC2B
BDAE
BE01
BDE0
BE21
BE1C
BE19
BE19
BE2A
BE1C
BDF2
BDE4
BE15
BDCE
BDBC
BD06
BD30
BD6E
BD30
BD23
BD6B
BCB2
BCD3
BC2E
3A7B
BB12
BC38
BCDA
3C07
BD1B
BD42
BE07
BE39
BDC8
BDA2
BC98
BDB7
BCCA
BDCC
BE0B
BDE3
BE03
BE04
BDD5
BDCC
BE16
BDE8
BDC4
BD48
3C57
BCFD
3CA5
BBB3
3D59
3CF9
3C63
BBE0
BBDE
BD3A
BD7B
BD8A
BD3A
3C71
BA12
3C64
BD8A
BCA8
BD37
BD8B
BCC9
BCE7
BE0C
BDBB
BDAE
BDCE
BDA8
BDC5
BDFB
BDB0
3BA8
3C25
3D11
BCC8
3C79
BC7A
BBA5
3B81
39AB
BD33
BCD5
BC79
BD21
BCC2
BD1B
3C59
BC52
BC10
BD45
BD96
BD97
BDDA
BCEB
BC82
BDF8
BE1C
BDBC
BD0C
BCE4
3D76
3CCF
3D0D
BD84
BC80
BD40
BD82
3B0B
3D55
3BDE
3C8A
BCE8
3D93
BC76
3C39
3CC9
3CB3
3C40
BD7E
BD25
BD8D
BD3E
BD22
BDA7
BE08
BC34
3A7B
B9FD
3D5D
BCEF
BCDF
BD42
BD45
BC6A
BB93
3D0E
BB24
B884
3C9C
BC83
3D09
3D1F
3D5E
3D7E
3DAD
BA3F
3CCB
BCB1
BDA7
BD28
BDA2
BD13
BD64
BD85
3C9B
BC59
BD9E
3C43
3C61
BC9A
BDB3
BCBA
3B9A
3BE2
3D12
BD06
BD4B
BD91
BDA1
3D03
3D25
3D47
3D67
3D73
3AEF
3CAF
BD2A
BD07
BDF9
BDA7
BDB2
BE0E
BCA0
BD0E
3C48
3D42
3D3A
BD70
BD95
BD4B
3D3C
BACE
BCCA
BC58
BE09
BDA9
BD40
BC51
3DC3
3E0E
3DF3
3DBF
3CED
3C1A
BD8A
BC84
BD8D
BE05
BDDA
BDBA
BC99
BC96
BD23
BC98
3D66
BDBA
BDF9
BD14
BC3C
BCEF
BDEF
BE06
BE15
BD8C
BD84
BC7B
3D55
3DA6
3DCB
3D78
3D36
3CFD
BB96
BC86
BD6B
BD39
3D3D
BD83
3CD0
3B60
BD45
BD94
BA68
BDC2
BD67
BDA4
BC6C
BCEB
BD8F
BD91
BC8D
BB3F
3C7F
3CAD
3DF9
3DB3
3E04
3DE8
3D62
3D6A
BC7E
386E
BD18
BDC7
3996
3C92
3C2C
BC51
BCB9
BDA7
BCBA
BDA5
BDBE
3C8C
BCCC
BB82
BD12
3C0B
3D09
3D85
3DA0
3DA2
3D97
3D83
3D80
3DD3
3D2B
3CCB
3B57
3D81
3CA0
BC6C
3D0C
BD81
3C41
BD90
BD4F
BDC2
BD94
BCDE
BD27
BD03
3D09
3D40
BC46
3D3C
3D85
3DFE
3DE4
3DC3
3D73
3D04
3DC0
3DC3
3C6C
3CF7
3CBF
3B39
BDA5
BE08
BD88
BD2A
BBF9
BD1C
3C1E
BD62
BDA8
BCFA
BD04
B906
BC42
BC2E
3D87
3D6F
3DBF
3E1A
3DE9
3C8D
3DD6
3DD6
3DA7
3D5E
3BB9
3CDE
3CC5
BDB8
BE48
BE46
BE0B
BE04
BC5B
BD99
3D4D
BBB6
BC0E
3B97
BD60
BE06
BDA7
BD28
BAC9
3DF7
3E38
3E16
3DCB
3D49
3D87
3D8A
3DE7
3D29
BD1D
BC2D
3B08
BD81
BD74
BE3A
BDD3
BD2E
3CC2
BB4A
3DA9
BCA8
BD50
BC47
BDF4
BE67
BE5C
BE08
BCB8
3DAB
3E03
3E0C
3D45
3C22
3D74
3DCA
3DC6
BBB3
BCCA
BD8F
BC15
BC2D
BD9B
BDFE
BE36
BE12
BC01
BD0D
3DA7
3B4C
BB6F
BC9D
BE19
BE72
BE7D
BE65
BE3A
BDC4
BD4B
BC44
3D17
BD0A
3D1D
3D9D
3D0F
3C8B
BD4E
BDB6
BD91
BD7B
BD17
BE46
BDF6
BD2F
3CA5
BD59
3D9B
3D28
3D8D
BD8E
BE12
BE66
BE92
BE47
BE88
BE1C
BDC8
BD9C
BD9E
BD1A
3CC4
3D19
BCDA
BD35
BDB9
BDC4
BCE0
BD82
BE1E
BE60
BE2D
3D97
BD87
3BB1
BD89
BC4D
3D80
3CCC
BD01
BE0A
BE64
BE4D
BE78
BE3A
BDFB
BDCB
BDB8
BCD0
38FB
3CE1
3C52
BD4A
BDFC
BD8F
BC24
BE01
BE2E
BE4E
BD96
3D10
BDD1
3CCD
3DA4
BCC7
3DD9
3DDE
3C44
BD19
BD9F
BDD7
BE04
BDDC
BD9A
BE0A
BD85
BD66
BD88
3CE1
BCDC
BD55
BE07
BDD8
BDFE
BE24
BDFA
BE08
BC15
3D2C
3A9E
BD5B
3CD5
3DD1
3DEC
3DD8
3DB7
3D7E
BC1C
B9F4
BCBC
BC9D
BD9A
BD44
BD85
BD42
BD54
BCCB
BCAE
BDC4
BDDF
BE34
BE1E
BE17
BE0F
BE01
BD4A
BC0A
BD03
BD12
3C82
3D9A
3DBB
3DF0
3D3C
3DE7
3DB0
3CFB
3A78
3D4D
3CCA
3BF7
BC87
BD70
3A0E
BD44
BD29
BDB1
BE09
BE18
BE20
BDB9
BDAD
BDBE
BD8C
3D59
3D0A
3BE8
3C25
3D3E
3E0F
3E13
3DFE
3DF2
3E13
3DAB
3DB3
3D38
3D56
BB84
3C54
BD75
BD74
BDF8
BDD9
BD67
BDB2
BDEA
BDB1
BE00
BC90
BB98
BBC5
3DA5
BC9E
3BFD
BCC9
3CFA
3E3C
3E43
3E2F
3E27
3E38
3DF4
3D05
3DB8
3D2E
BC54
3CE5
3BED
BD95
BDA8
BCD9
BDAA
BDC4
BDB5
BD53
3CB5
3D7B
BD48
BBB3
BC91
3CEB
3BCA
3D0D
3D7F
BCF8
3E39
3E67
3E11
3E18
3E3E
3E12
3DCE
3D12
3BDE
3D1D
3BEE
BD85
BD37
BCF1
BCF2
3BB5
BD35
BC98
3CCF
3CAB
BD5C
3C9B
BD31
BC9C
3C96
3C52
3C38
3C80
3E0F
3E29
3DC4
3D1A
3D41
3BC3
3D44
3D31
3D64
3D2A
3DCD
3D64
3D9B
3D2F
3C89
BB5A
3D72
BA73
BBCB
3C76
3CF5
BBA8
BC0D
BC9B
3AB8
3B1E
3CFE
3C38
BD84
BAA2
3CA4
BD25
3B22
3AA2
BD33
BC72
BCB9
BDB7
BD0F
3BA1
BD9A
BD30
3D39
3C41
3C10
BB9E
3AEF
3CEA
BCCD
3CC4
3BFA
BCBA
BB1F
3C5B
3D05
BD11
3D10
3CDC
3C8E
3CB3
BCAA
3CB0
3C92
BAC4
BD1B
BC9B
3D1E
3D82
BC57
BCAA
3AB0
BCF5
BC81
3C81
BB08
3BC2
3C9F
3C93
3BE0
BC95
3C14
BB56
BC6B
BCE1
3D0F
3BEF
BD0E
3BCD
BC8B
3B2F
BD0F
3D51
3D43
3CD6
394C
3D86
3D7B
3DBB
BB47
BCCD
BCC4
BB15
BCF2
3BC8
3CC7
BC81
3C04
3B74
BC71
BA37
3C40
3D13
3D43
BDA4
BBEB
BC4A
BD88
BCE5
BCF3
BC84
3D85
3CB3
BD25
3B00
3AD3
BB8D
BD43
BD92
BD81
BD46
BDBB
BD1F
B90D
BCF1
BC6F
BC0F
3CC3
3A13
3D90
3D3F
BD5D
BC67
BD5E
BC2F
3D10
BCC8
BC4F
3D43
3E06
3E23
3E2F
3DB7
3DE4
3DF5
BC1E
BCA6
BCEC
BDD6
BE1A
BDD5
BDD9
3C2B
BD18
BC9F
BC2A
BC27
3DF9
3D54
BD06
BCF4
BD72
3B8B
3AB6
3D9F
3D80
3DE9
3DF2
3DF8
3E05
3E1A
3DEA
3DA3
3D57
BD9D
BDCD
BDAD
BE20
BE6B
BE41
BD6F
3DEE
BD79
BCB8
3C12
3D99
3D92
3C4C
BB8A
BA00
3C43
3D6B
3C73
3D60
BB26
3C8F
3D89
3D97
3DEF
3DE4
3D2F
3C2C
BD0F
BD2F
BD42
BD49
BE4D
BE38
BDBF
BD37
BD64
BCEB
3DCB
3BED
3DE4
3CB0
3C9B
3C90
3CF0
3CB7
BA13
BCB3
3C5E
BCAD
BC5A
3D51
3D77
3DBC
3D7C
3DF8
3C2A
3D35
3DE1
3D4C
BC87
BE34
BE2F
BDAE
BDC0
BC92
3DF9
3CBD
3DE8
3D81
BC87
BCAE
BBDE
BD6C
3C80
BC56
BC26
BC9E
3C75
3D05
BC77
3DAE
3DA8
3E1F
3DFF
3D59
3D62
3DC6
3DE9
BD7C
BDE6
BD5E
BD00
3DAC
3DF2
3D78
3DC3
BAE6
BD56
BB03
3D0C
BCD4
BD0C
BD21
BCD2
3CA2
3D24
3DF8
3E0F
3E2D
3E3B
3E4C
3E24
3DEC
3E18
3E41
3E07
BB60
BCAC
3D1D
3D84
3CF8
3DD0
3D74
3D7E
3C08
BCCF
3C01
3C75
BBB3
BCE4
BD42
BD9F
3CB6
3DB1
3DEA
3E22
3E35
3E5A
3E15
3E33
3DE0
3E2F
3E59
3E04
3DDD
3BBB
3D02
3D73
3C87
3DB4
3D9E
3E02
BD08
BD97
BA0D
BB11
BD74
BC8F
BD63
BD95
BCBF
3CDA
3E11
3D8C
3E10
3DF2
3D7F
3D8F
3DBF
3D9B
3E26
3E10
BAE0
BD1D
BCFF
3BE8
3C14
3DE6
3DB3
3DAA
BCE5
BE1E
BD68
BD97
BD8A
BD49
BCE5
BD68
BDDD
BD2A
3C2C
3BC2
BD90
BCD5
3D43
3D8E
3DAE
3D28
3DB6
3DA9
BC0A
BADE
BCBA
BCDC
3B82
3D25
BC03
BD25
BDA3
BE25
BD8E
BD94
BDD8
BD8A
BC7C
BDC6
BDCD
BE0B
BD2A
BD81
BD9D
3A1A
3CC2
BA96
BBF3
BCBC
3CBA
BC21
3B57
3C8F
BD3D
BD11
BD0A
3BA2
3D31
BDB8
BE15
BDE2
BDA8
BD98
BD1D
BD21
BD97
BDD6
BE20
BE1E
BDB4
BD6F
BD80
B9F2
BB01
3C69
BD67
BC3A
BD3E
BDC3
3B80
BD34
3C44
3C89
3CA5
3CE6
3DAB
BD96
BD1F
BC36
BD82
BD32
BCF4
BB6F
BBE5
BD1F
BDA3
BD58
BC1E
BCC0
BD17
BCFF
3BAE
BCBB
BD85
BD0D
BDB1
BCDB
3D82
3CCD
3D96
BD5D
3BD1
3CCD
3D50
BDEB
3C8A
3D86
B98D
BC84
BCC3
3D4E
BC56
BCB6
BD97
BDDD
BD8B
BBAB
BD4C
BD1A
BBB4
BCF9
3B22
BC4C
BD8C
BCA3
3D33
BBC7
B993
3D83
BC30
3D4C
3DA1
BD12
3D96
3C65
3C0D
3C8B
BCBB
3C40
3D59
BD0E
BD4D
BDA8
BDC3
BD9C
BC2E
BD91
BD89
BD87
BDAB
BCD2
BB13
BCED
3D1C
BCB4
3D50
3D1C
3B4D
3DCE
BCC9
3CE0
3D56
3D3A
3D10
BC56
BC25
BC5A
BBC3
BC71
BD48
BDE5
BD36
BDA2
BC84
BD55
BDA9
BD93
BDCA
BDD9
BBA4
BC82
3D1F
3D0D
3D85
3D48
3CD7
3DA8
BD1E
BCC1
3D13
3C46
3D25
3B32
BA4A
BC4C
BD39
BC05
BDAD
BD02
BDA2
BD29
3C03
BC84
BD39
BDED
BDDE
BD2F
3D74
3CB4
3D11
3C97
3DF4
3DCE
3CC5
3DFC
3CE4
BCBC
BAE4
3D2E
BA86
3D53
3D2F
3D0A
BC7E
BD11
3CBC
3C98
3CB9
BA5F
BBF7
BCB1
BD2A
BD76
BD17
BD3D
3C94
3C03
3D9D
3D2F
3CA1
3D91
BCC2
3D3A
BD5F
3D6E
3D71
3D7D
3DBA
3D7A
3D6D
BD08
3C36
3CB1
3D50
3D50
3BC8
BBC1
BD1D
3CB4
BD87
BD60
BDD0
BCF3
BBF5
BCE7
3BA0
BB46
3B8B
3B5F
BC2B
3D40
BC46
3C94
3D5C
3D1D
3DED
3D89
BC6F
3ADC
B995
3CCF
3D16
BB3E
3CCB
BCCD
BD0C
BD2A
BD26
BCEC
BDA2
BE03
BD99
BD7F
BE03
BD90
3D8F
3BAB
BD1F
3D4A
3C91
3C74
3C9B
3E03
3E38
3DB1
3D97
3D53
BBE7
BAB1
3D3A
BCB2
3D69
3C17
BC86
3CF0
BB80
BD11
BE10
BE69
BE16
BD97
BE04
BD8D
3D9A
3D2A
3BEE
3D08
3D19
BC28
3D55
3D95
3DE5
3DC9
3D16
3D29
3D89
3DBC
3DA8
3D9E
3B38
3C72
3BF0
3D7B
BD10
BE1B
BE81
BE7D
BE17
BDBC
BDA7
BDD1
3D2C
3CAC
3BB7
3C77
3D57
3E11
3E1B
3E0A
3DAA
3CD7
3D4B
3D47
3DA6
3D7F
3D85
3E07
3DDF
3D8A
3D68
3CB3
BCD2
BDF9
BE4A
BE3C
BE3B
BE1D
BD16
BC9F
3D1F
3B62
3BB2
BCFF
BC89
3CFA
3CCC
3CBF
3D6A
3DC2
3DF8
3DA5
3D36
3D68
3D7E
BC85
BC4F
3BC5
3C8D
BC9A
BD57
BD8B
BDA8
BE08
BD6D
BDBD
3D5A
BCD0
BC4B
BC6A
3C4B
3B0B
3C9B
BD31
BDAB
BD9E
BC90
3D39
3DD2
3CDA
3DD0
3D23
BC26
3D27
3C82
3D07
3D6D
3D0A
3CCB
3D54
BD75
BCBC
BD5D
BACF
BC6B
3D38
3D0A
BCD7
3C9C
BCA1
BC45
3C93
3D9C
3DBD
3E0A
3E07
3E00
3D3C
3DA2
3CD4
3D50
3DF2
3DC3
3D15
3DC1
3DC8
3D97
3C23
3C85
BB9F
BC10
3C53
3CCF
3CEC
3BE9
3CB1
BC44
BC7E
3CC5
BD01
BBD5
3CE0
3D07
BC28
3C39
3CB0
BA34
BD05
3BEE
3BA2
3CAA
3C5C
3AE6
3C80
BCDA
3CA4
BBE8
3CC4
BCF6
3B9D
39A1
391D
3B0B
BC05
BC26
3CCD
BB16
BD0E
BCF8
BD0F
BDE6
BD59
BD9E
BBD2
BD8E
BD33
BCD1
BD0B
3CE4
BD7C
BD38
BD5F
BE3D
BE05
BDDC
BDF6
BD89
BDA9
BCE4
BC70
BB8C
BC6B
3CFA
3BCF
BD03
3C56
BD84
BCD0
BD01
BDA4
BE06
BD8F
BDAC
BE00
BDCD
BD9D
BD83
BDDD
BE03
BDDA
BDB0
BDEE
BDB7
BDEE
BE03
BDFC
3C74
BCA1
BD0D
BCF2
BC9D
3D01
3CF8
BCB6
BC54
BD34
BDC0
BDC8
BD6E
3C4C
BD6F
BD58
BDC0
BCE6
BDA1
BD93
BD9E
BD70
BD91
BDE3
BDC0
BD75
BCD8
BDBE
BCDC
3DCA
BD7C
BD0A
BBD5
BC25
BCF4
BD6A
3C5D
BDE1
BD1C
BD64
BD27
BBB0
BCBD
BCF5
BC84
3CCF
BC60
BB99
BCDA
3C9C
BBA3
3C9C
3C93
BC8C
3BF0
3D70
3DFD
3DAD
BCF2
BDC8
3C6C
3AC6
BDCE
3D2A
BD1B
BD06
BD2B
BD8E
BDAE
BD74
BD67
3C87
3CCD
3C43
3D81
3D27
3D61
3DAB
3DCD
3DA2
3D44
3DD0
3D57
BC74
BD65
3DB0
BDAE
BDA4
BD02
BD0A
3C7A
BC2F
BDB0
BDE2
BE12
BE0F
BDD9
BDEB
BD60
3C38
BD02
BC88
3D62
3D6C
3D83
3D89
3DA4
3D85
3CA2
3D85
3D0A
3D2C
BDD3
BC95
BCE9
BD3B
BCD6
BE11
3C98
BDDE
BD13
BE06
BDA2
BDE0
BDF6
BD5A
BC97
BC93
BB23
3C62
BC40
3C3B
3D0D
3D73
3DA8
3D8F
3CBB
3D6D
3D3C
3C6A
3D16
3D9B
BCED
BC17
3CDE
BD6C
BD6A
BE03
BDD2
BDE5
BCE1
BDD5
BDC1
BD15
3B07
BCBD
3C71
3BC1
3D45
B90B
3D17
3D23
3D93
3D1E
3C42
3CF9
BCF5
3D39
3E3D
3DF2
3D93
BC9A
BC25
BCEC
BDC2
BD94
BE0B
BDCD
BCBB
BD9F
BDD2
3C7F
3C9C
3D44
3D0B
3D95
3D4C
BD08
BD03
3D24
3D44
3CA4
3D6C
BB80
BCCC
3CC1
3E0A
3B3D
BCB5
BDC5
BB4E
BDA6
BD3D
BD95
BD06
3D1C
3D55
BB92
BC30
3CBA
3D61
3D95
3D0E
BC8F
BD29
BE1D
BDE4
BD14
3B58
3CBD
BC2D
BBE6
BCA5
3D20
3D26
3AB8
BD0E
BB6C
3C29
BC83
BDF5
BD90
BCF1
3D38
3DB2
3D01
3D64
3D51
3D5D
BCA6
BCF7
BD7B
BD4B
BDF1
BE0F
BDED
BD89
3CED
3CE6
3D2D
3D13
3DC3
3D6C
3D22
3D28
BC48
3CC5
BC28
BDEC
BD8C
BC5A
3D50
3DB4
3DA1
3D3A
3D83
BC9E
BB9D
BD1A
BD1D
BDF0
BE2E
BE6A
BE02
BDA4
3DC9
3E07
3E02
3DD8
3DAF
3D0E
BD8C
BD96
BCF3
3CF5
BD11
BD81
BD27
3D72
3D62
3D5E
3E24
3DA2
3D96
3D2D
3D27
3CEC
3BAD
BDEF
BDF7
BE1B
BD26
3C87
3DF2
3E07
3E0B
3E0D
3DDA
BC94
3D47
3E08
3DB2
BD64
BD37
BDDC
3BA1
3DE2
3DDA
3DD5
3E23
3DD5
3DDF
3DAD
3D29
3D5D
3CA9
BCC8
BDD5
BD89
BC2F
3CF7
3DC3
3D95
3DDC
3D1A
BCAB
3C60
3DF3
3E16
3DB2
BD70
BC7B
BDBE
3CE4
3DB3
3DDC
3D94
3DF8
3DDB
3DBE
3E16
3E05
3DD6
BD3D
BDA6
BD41
3C71
3D45
3D96
3D77
3D48
3D37
3C55
3B2B
3CA6
3D91
3E30
3DC4
BC29
BDA5
BD10
3C62
3C5D
3C8D
3DDE
3DC3
3E13
3E00
3E14
3E1D
3D7E
BD7B
BD3C
BCC2
3DD2
3DB5
3D73
3D53
3D12
3D61
3C83
BD62
BD5A
3D91
3E77
3E04
3BC0
BD90
BCAE
BD2B
3C1C
3D97
3DCA
3E0C
3DE1
3E27
3E1D
3DE8
3CF9
BDA9
BD7F
3CC4
3DC8
3CBC
BC8A
3CB7
3CFE
3D66
3BF1
BD24
BD56
3D7F
3E0B
3E0C
BB42
BCE5
BD92
BD21
3CBE
3D58
3E2D
3E07
3DBC
3E1A
3DA0
BCC0
BD97
BD7E
BCC5
3D72
3D87
BC56
BC87
3CD3
3C8C
3D40
3D92
BACF
BBEF
3C3A
3D44
3D8C
BA97
BD16
3D16
BD7F
3D82
3DB5
3E01
3E1D
3E06
3DD5
3CCD
BE11
BDC5
BDAE
BCCD
3D70
3D04
3C9F
BC1C
3C62
3D43
3DD6
3DA7
3D74
3C74
BD3E
3DB6
3D5A
3C27
3C96
3DD0
3D29
3D43
3E0F
3DE1
3DA9
3D38
3CE6
BCAD
BDE5
BE10
BDB2
BCAE
3CA2
3CBC
BC88
3B9E
3C82
BCFD
3D5E
3D67
BA95
3D6D
3D12
3CA9
BAD4
3CE2
3B4C
3DC7
3D5E
3DB9
3DE8
3DD7
3D6F
3D8B
3D81
3C11
BDC6
BD80
BDA6
BB5B
BB28
BC47
BDA5
BDA3
BDB9
BD5E
3C85
3D97
3DDE
3DF0
3C66
3D51
3CF2
BCDE
BCEE
3CEC
3DEC
3D89
3D99
3DA9
3DAD
3DCF
3DAC
3D13
BC83
3CFB
3C79
BD18
BDC4
BDAA
BD95
BDAC
BD8E
BD8D
3B5C
3DA1
3DA6
3DC8
3C8A
BD85
3D23
3CDF
BCDB
BCB1
3ADD
BD40
BD4C
BD94
BD6A
3D40
3DC0
3D9F
3DA3
3C01
3CA3
BC26
BDD3
BDB8
BE12
BDFC
BDA2
BCE2
3C49
3D3E
3DC8
3DE4
3D49
BDDA
BCE3
3C0D
BCAB
BCA9
BE15
BE45
BE3E
BE0E
BDF0
BC32
BC95
BC73
3CF2
3CA1
BCC6
BD8D
BD29
BE0D
BE05
BD99
BD4F
BCB0
3AA1
3D40
3DE6
3DD4
3D35
3D03
BCED
3CA5
BD02
3D79
BDBF
BDFB
BD96
BD50
BDCE
BDD9
BE1F
BDD7
BDC2
BDA9
BD3A
BD03
BD4A
BD7C
BE0D
BDB6
BC1C
3D6C
3C3F
BDB7
3CB2
BD40
3D4D
3CFD
BCD6
BC31
BC59
3BAF
3D4D
3D8C
3D7B
3DF1
3DBB
3CB8
BD5C
BC93
3C88
3DB3
3D46
3D21
B980
BD1F
BCD6
BD5B
BD8C
3D05
BBD1
BC95
3DA8
3DA7
3BFA
3B96
3CEA
BD07
3CFD
3C7E
BCE6
BD45
3C66
3C98
3B73
3CAF
BCBC
3D44
3D1B
3D77
BD5C
BC62
BD73
BD83
BDE2
BD11
3CF2
3D16
BDA7
BDCB
BD6A
BC19
3D00
3CE1
3D12
3CEA
3C0F
3D0B
BCC4
BA89
3D02
3BEE
BB8C
BCEB
3B9B
BCC3
BB7E
BC0A
BC4D
3CFA
3D7F
BC97
BC82
3C24
3D05
BB93
3C7B
3CFE
3AB9
3CF4
3D0C
3C7B
BD01
BC10
BB94
BD0A
3CE7
3B0E
BD07
BDA3
BD07
BBEF
BD43
BDAA
BD42
BCB4
BD8C
BCBB
3C67
3DA7
BD6D
BDCC
BD8D
BDE9
BDE8
BDD9
BDD5
3B5A
BCC6
BCAD
3B35
3CDC
3D0B
3CC8
3D50
BDA5
BCA5
BCA2
BD93
BD99
BDBD
BDC9
BD96
BDE4
BE0A
BE3C
BE23
BDE7
BDEE
BDC2
BE3F
BE08
BDD5
BD86
BDA1
BD25
BDD8
3BD8
3C2B
3CA2
BBED
3DA1
BD96
BDC2
BD81
BDC1
BDDD
BDD0
BD7C
BE05
BE21
BE4B
BE52
BE70
BE5D
BE4E
BE26
BE29
BE63
BE4F
BE13
BCD7
BC00
BC96
BCB9
BD97
3C84
BD05
BCA6
3C36
BD5F
BD10
BDF6
BDEE
BD80
BD57
3C8B
BD89
BC23
3D5B
BB49
BCCE
BD8E
BD9B
BDB1
BDE0
BE05
BD80
BCCC
3C0A
BD16
BB80
3D3B
3CC3
3CDB
BC99
BCEF
3ADD
BC8C
BDB7
BE07
BD8F
BDD0
BCD4
BBFF
3BAB
3E0D
3DDB
3DD8
3D41
3C72
BD5C
BD1A
BD80
BDCB
BDCA
BD5D
BCCC
BD7E
BD17
3D5E
BCF8
BC61
3C1C
BD86
BC9D
3D1F
BD90
BDCA
BD98
BC57
BCCD
BBA0
3D8E
3D35
3D92
3D97
3D16
3DA3
3DBF
3D22
3CAE
BDAF
BDE6
BDB3
BE04
BDA5
BE11
3C96
BDBB
BCCB
3C04
BDA8
3DA0
3DFB
BCCD
BD47
BC6D
BCF7
BC4B
3D06
3D7F
3D15
3D3E
3DBE
3CB1
3D7C
3DCC
3D68
3C2E
3B01
BDC3
BDB2
BDC6
BDA7
BC14
BD2C
BD2D
3B3F
BCD4
3C23
BBC1
3B44
BC9D
3B9D
3C59
BCA1
3D07
3D08
3D8D
BC87
3928
3D3E
3D0C
3DA1
3DB9
3D42
3D56
3CC9
BB98
BDBD
BE06
BD8F
BD23
BC56
3CCD
3B62
3B93
BC9C
BCDA
3D04
BD01
3D81
3DDD
BBF7
3B66
3CFC
3D7F
3B95
3D83
3D4E
3CFF
3D77
3DBF
3E15
3DAA
3DE4
3D21
BDCC
BE08
BDDE
BDC8
BCE9
3D5B
3D4A
BBF7
BC1D
3B7F
BC0A
3D25
3E07
3DA2
3D9B
3D4C
3D5F
3D73
3D73
3D88
BA24
3D1A
3D0F
3DB6
3DB2
3DA5
3DF5
3C0C
BDDB
BE02
BDDD
BE14
BDDC
BCCC
3D2F
BC8A
3D25
39B3
3D47
3CC8
3D9B
3DC2
3D95
3D80
3D02
3D26
3C8A
BC30
BCB8
3C9E
3C69
3DC6
3E12
3DD4
3D9B
3D9A
BD92
BD5B
BE01
BE16
BDEB
3CE7
3C70
BBAD
3D58
3D19
3E08
3DD6
3E12
BC65
3D23
3CDF
BC2D
BD88
BD20
BD92
BD36
BC99
3D46
3DD7
3E1A
3E19
3E0A
3DDB
BC73
3BEF
BD1A
BD3D
3CA7
BBF3
3D17
BD07
3D1B
3BC3
3D67
3DCE
BB0E
BD7D
3C53
BC82
BDCA
BD94
3989
BD00
BCDB
BCB9
3D67
3DF7
3DDC
3E0A
3DC8
3CA0
BCA1
3C90
BDDA
BDDF
3D84
3E1E
3DC0
BDA9
3CA4
BD00
3BDA
3D01
BD24
BCD3
BD84
BD84
BDA1
BD86
3BE6
3B23
3B8B
BCB5
3D78
3DB4
3E13
3E02
3CF8
BD32
BDCC
BD08
BD7E
BDAF
3CD7
3DDE
3D71
BD5C
BD7B
BE43
BD30
3B83
BDB0
BE1F
BDE9
BDC8
BDB2
BD65
3C0D
3C75
BCCE
BCD4
3D71
3DCF
3DF4
3C14
BC96
BDB9
BDA1
BCF7
BDE8
BD9E
BCA6
BCCB
3D4F
3BFB
BD55
BD9D
BDA9
BD0B
BE23
BDE0
BD03
3C01
BCF3
3D3C
BCAA
3D4C
3C37
3C03
3DE3
3E1B
3DC7
BD41
BE20
BD97
BD9C
BD9E
BDD2
BDC9
BD0A
3DC0
3DB6
3C66
BD9A
BD9C
BE12
BDE4
BE06
BDDC
BD49
3CB5
3DB9
3D37
3D45
3D16
3D4E
BB63
3D63
3D01
BCB3
BD96
BE07
BE12
BDDB
BDBA
BDB4
BCC4
3D39
3DC6
3E13
3D47
BD3E
BDB3
BDE9
BE37
BE40
BDD1
BD20
3C44
3D64
3D68
3CD4
BBE4
BD0E
3CF9
BCE8
BD28
BD71
BDB0
BDB8
BD8B
BDD2
BD1C
BD63
BC08
3C1B
3D3E
3D7B
BD2D
BD8B
BD5A
BD91
BE3A
BE2E
BDA7
BCAE
BCF3
3C43
3C8B
3C2D
BBBD
3C5F
BB95
BCFF
BBB0
BC95
BDA1
BDA6
BCE2
BDA9
BC9A
BD29
BD35
BD4B
BC38
BD57
3C18
3DA0
3CBD
BD92
BE03
BE12
BDE2
3D12
3CC7
BC52
3CFE
BD05
BC87
3C16
BC91
BC82
BCC9
BC92
BDE8
BBD5
BADE
BD06
BD1D
BC10
3D29
BD32
3CF8
BD49
BCA9
3D7F
BD6C
BDD8
BE3E
BDF4
BD91
BCA0
BD3B
3C2C
BC77
BD3A
BD0F
BCE9
BCC2
BC4E
3C93
B9EB
BC89
BD84
BCE4
3CC9
BD3F
3B61
3D1E
B9A5
BD9E
BC8C
BD44
BCB4
BCF3
BE02
BE52
BE0B
BD1E
BD05
3CF0
3CD9
3D30
3CFF
3D15
BCE0
3D1E
BD50
BD44
BDB1
BDA8
BD3F
BC82
3D1B
3D64
BC39
3D73
BCFE
BD94
3C9B
BC62
BC89
BE06
BDD9
BE3F
BE42
BDCE
3C8A
3CE1
BCBE
BC86
BAE4
3C72
3CC3
BCCB
3C19
3B24
BD89
3C05
BD09
BD1B
3D0C
3E0B
3D9C
3D06
3B94
BDB1
BADC
BC1F
3BCE
3BBE
BE13
BDE6
BD5E
BD7F
BD4C
BD29
BD8A
BD31
BD27
BCEA
BCF5
BD0A
3C79
3B6A
BD12
BD55
BBFC
3D5B
3D1B
3C88
3DA8
3C9C
3D88
BD4B
BC13
BD09
BC87
BC24
3CD7
3CEA
BC28
BC87
3BDC
3C1F
BD78
BC0F
BCC4
BD58
3BA5
3D7F
3C34
3CE9
3CF4
BC4C
BD0D
3CAC
BC95
BD7F
BCE0
BC95
3CD2
BD2C
BCD7
3A29
3D0C
3BDB
3C72
3D75
3D76
3DAE
3DFD
3E3F
3DE7
3DEE
3D16
3DF5
3DCB
3E2A
3DCF
3D88
3DB2
3D97
3D20
3D86
3DD1
3DC2
3DD6
3D14
BD65
BBB2
BC0A
3CC6
3CA6
BBD2
3D00
BD4C
BDA5
3D44
3DA8
3D8F
3D5C
3D8E
3D5F
3DE8
3D99
3E11
3E05
3DA2
3E05
3E1D
3DDE
3DDE
3E2A
3E25
3DA7
3CCE
BC70
3CCB
BC84
BC3A
BD10
3CBF
BCFC
3D07
BCCB
3C9C
3C08
3CD8
3C73
BC05
3C23
3C8F
BCA1
3CA3
3C2A
3C65
3CDA
3CE9
BCCF
3CCD
3CBB
BD10
BC9E
BC80
3C29
3CFB
3CFE
BD02
3BF2
3CB1
3D04
BD36
BC2A
BCED
BCD5
BC08
BD1B
BDA7
BD5E
BD8E
BC43
3D96
BD58
BD80
BDD9
BE10
BDF1
BDC2
BE0E
BD8D
BD98
3CD3
3C9C
3B88
3CD6
BBE2
3CBB
BCB1
3CCF
BD8E
BC0E
BCD4
BCB1
BDA8
BE01
BE05
BDF6
BE13
BD83
BDD9
BE53
BE91
BE50
BE04
BE1A
BE3E
BE39
BE04
BE0C
BBFD
BC51
3D05
3D00
3C95
3CCD
3D79
3CB9
BDDD
BD92
BD71
BE1E
BE3D
BE22
BE7C
BEA0
BE83
BE81
BE78
BE39
BE2A
BDE7
BDB0
BE0E
BDDE
BDF4
BD5A
BDA2
3B12
3DFA
BC00
3CCB
BBB9
BC88
3D13
BC65
BD91
BDDC
BD8D
BE10
BE4B
BE4B
BE7E
BE00
BDD8
BD6D
BD65
BD8F
BCE9
BD60
BD6B
BD42
3BF9
BC87
BCF9
BD61
BB73
3D11
3CEC
BD48
3CEC
BCB5
BDB4
BDB9
BD95
BC18
BD36
BCF9
BDB2
BDAD
BD93
3D31
3C77
3D2F
3D53
BCFF
BD6B
BD22
BBC7
BD03
BCB5
BC46
BD04
BE0C
BDF6
3D3D
BD43
BD88
3D0A
BD31
3D31
3C98
3C9D
3C60
3B61
BB85
BCFE
BDB9
BD0A
3D7B
3C48
3BA6
BCA7
BCF3
3C4F
3BD6
3CCB
3CA2
3C6E
3D84
BBB0
3C91
BD64
3D11
BCAD
BD7E
BC69
BD3F
3C95
3DBD
3AF8
BCD2
BB8D
BD0E
BD0D
3CA3
3CE4
3C29
3CF9
BB5F
BCAA
BC9D
3D42
3D1A
3D8F
3D8B
3CA2
3DAF
3D41
3DD0
3DAE
3C1D
BC64
BD7C
BCBC
3D72
3D1D
3D8A
BC91
BC6D
3C8E
3CEB
3C9D
BC23
3D22
3D82
3D1F
3D08
3B9A
3C36
3CE0
3C78
3D8E
3D28
3D22
3D86
3D49
3E31
3E3D
3D71
3DD4
3D87
3D71
3D3D
BD14
3D4F
3C66
BBEA
BB40
BC5B
BD44
3D66
3D21
3D94
3D6F
3D9E
3DC1
BC81
BD09
3D34
3D04
3D36
3D34
3D9C
3DA8
3E0F
3E23
3DFC
3E37
3D8A
3D59
3CBB
3D6D
BD13
3D8C
BC9E
BD5A
BCC0
BD10
3DAA
3D89
3DE3
3DF2
3DC6
3DD0
3C7C
3C65
3C94
3CF3
3D7B
3D37
3D74
3DA8
3E01
3DB4
BC9A
3D45
3DAA
3C27
3D9B
3D72
3D46
3D73
3CD9
3C8E
3D01
3D5A
3DF1
3DAF
3E16
3E01
3DCF
3DD7
3D43
BD01
BA3D
BC0B
3934
3D89
3DC9
3E10
3E1F
3DB4
3D14
3D64
3D5C
3BC1
3D46
3DFB
3E02
3DE6
3D41
BC20
3D0A
3D8A
3D96
3C49
3D90
BCCE
BCB0
3CF9
3D26
3C19
3D56
BCD2
3CE1
3DB0
3E08
3E28
3E10
3D56
3D94
3DB9
3D6E
BCB7
3D49
3DC4
3DDE
3DC1
3CA2
BCD3
BCB6
BC97
3CAC
BCB1
3C84
BC9D
3B89
3CBC
3D2F
3D2B
3CDE
BAAC
3D57
3DF5
3D36
3DF2
3CB3
BC38
3CA6
BB71
BD00
BCCE
BB3B
3DDB
3DA4
3D04
BD1D
BD88
BD80
BCF8
BD40
3CA4
3CD3
B9CE
3BBC
3D5A
3A12
3D0B
3D95
3D68
3CE6
3D04
3C21
3C27
3AEF
3C09
3CB1
3D6E
3BBD
BD45
BD18
BD71
3BC8
BD9C
BD7F
BDCE
BDBF
BD4B
3AA3
3C12
BCCF
3C27
3D3D
3C82
3D51
3D57
3DA0
3D62
BCD0
3B47
BC72
3CBF
3C1A
BCBD
BD82
BDA8
BCD4
3CD4
BD6D
BCEC
BDB9
BD9A
BDBF
BD6C
3CEB
3D13
BCE9
BC05
BD46
3C73
3CE9
BC7B
3CF4
3D3B
3DAA
BD44
BDA8
BD8D
3BAA
BD9D
BD86
BD75
BDF5
BD8A
BCAB
3C37
BD71
BE0C
BE03
BD96
BD4A
3CFE
3BB2
3D6A
3D58
BC21
3C9F
3DB1
3C41
3C93
3D3D
3C76
BBCB
BD8A
BD3A
BD43
BC29
BD1F
BC8C
3B97
BDCD
BD5B
3CCD
3DE9
BCA1
3A2B
BE29
BE01
BD35
3C95
3D21
3C8A
3C84
3D04
3C80
3D0C
3C46
BD39
BD87
BD0B
BD61
BDB4
BDD8
BD32
BD96
BD4A
BDD8
BDA2
BD8B
3BBA
BD8D
3C50
3DDC
BAAA
BE15
BDFD
BD7E
BCAA
BD02
3CC7
BCF4
BC3E
BD18
BCAE
BD99
BDA5
BDA2
BDD0
BD65
BD4F
BD43
BD99
BE00
BDCB
BDF4
BD9B
BC90
BD97
BD8F
3CD1
3D15
BD58
BE1A
BDE7
BD50
BD06
BC2E
BC4C
BCFE
BD29
BDB8
BD89
BD81
BD9C
BD65
BD89
BD5E
BD91
BDD0
BE1B
BDAC
BDC7
BD8D
BD1F
3D2B
BDCE
BCBE
BD4E
BB87
BDF3
BDD6
BD1F
BC99
3D54
BAB2
BCE9
BBE9
BD5E
BD98
BD07
BD96
BD88
BD29
BDC6
BD78
BD97
BDB7
BE08
BD2C
BD84
BDF2
BB8C
3C2D
BDDB
BB88
BD6B
BD35
BDAE
BDC5
BD53
39C9
3D89
3D47
3C17
3B86
BD03
BB35
3D2C
3D3B
3D46
BC5F
BCD6
BDD4
BDF4
BDF2
BE23
BD90
BD0C
BDC2
BD5C
BD36
BDA4
3ABF
B914
3BF8
BDC1
BE0B
BD5B
BCDD
3CD9
3CC0
3D25
3D6D
BC27
3BCE
3D8F
3D6A
3D0F
3B8D
BBE2
BC18
BDEE
BDFD
BDEE
BD4F
3D02
BD35
BCC8
BCE8
BDC5
BCE3
BB90
3CF2
3CA5
BD35
BD89
BCA1
BD15
BC19
3CBB
3C34
3C84
3CC6
BB95
3D19
3C94
3D31
3C06
BD6B
BCD7
BC7B
BCA6
BD56
BBAD
BD83
BDD0
BDE9
BD1D
3B3D
BA48
BC56
BD44
3DBD
BBA1
BCF2
BD6C
BD8D
BD09
3C85
3CCD
3D26
3C6B
BBBF
3D78
3D86
3D22
3DC6
3D8B
3D57
3D00
3D84
BD95
BD05
3C48
3A82
BD5B
BC09
3C1D
3C8A
3ABB
BC9A
BDBD
BD97
3BE4
3D83
3E01
3DEE
3CFD
3D21
3BEA
3DCD
3E19
3DC6
3DA5
3DA2
3DDE
3DBD
3DCD
3D8D
3DE9
3D47
3C04
3CEC
BD06
BBDB
BCBD
BC57
3B2D
BCB3
3D99
3E00
3DBF
3D9E
3D22
3D97
3E1E
3D8C
3D01
3DED
3E21
3D9E
3DA1
3DF6
3E11
3E15
3D6B
3D97
3DF2
3D97
3C9A
3C30
BB2B
3C99
BBC3
3BCD
BC88
BCAB
3C6C
3C68
3C20
BC72
3C07
BD0C
BC65
3B1C
BC7F
3C1B
3D10
3D44
3D08
BA7F
BD0F
3CF9
3CF4
3B8F
3D02
BCC4
3C8D
39A2
BC81
3D08
3C9E
BAE8
3CA7
BB0B
BCE5
BC34
BDD8
BDD6
BD99
BD81
BD58
BCBC
BCFF
BD9A
3CFD
BD39
3D9F
BCD7
BE11
BE14
BDFF
BD9D
BDA1
BD2A
3B04
3BFB
3C84
3B45
3CF9
BC9B
BC70
3C27
BDA3
BD21
BDE4
BDAF
BE02
BDB5
BE06
BDDE
BDDB
BD87
BD4D
BDC8
BD40
BD83
BDD4
BE30
BDBC
BDE0
BE00
BD8E
3CA8
BD03
BCB0
3C36
3C0C
BC5A
BAFC
BCBA
BDF2
BDB6
BDFD
BD8A
BDBE
BE2E
BE18
BDFB
BDB4
BD24
3CE8
3B25
3C2B
BC0B
BD2C
BD82
BD92
BDE3
BDBE
BDCD
BDBB
BCB2
BD19
3C90
3D09
3D2E
3D63
BCB5
BD0C
BD1B
BD50
BD30
3C71
BCA8
BDB8
BC92
BD2A
3D3E
3CB6
3D11
3D57
3D21
3AA6
BCBC
3C35
BDAD
BD87
BDC3
BD1F
3C2D
BD55
BCDC
BD0B
BBD2
BD7A
BCF6
3D74
3D96
3D31
3CE2
3D67
3D16
BC07
3B97
3D42
3D15
3D96
3D87
3D77
3D8A
3BEC
BC85
BCAE
BD3E
3C24
BD69
BDF4
BB52
BDB8
BC33
BCD7
3D3A
3D95
3E25
3CDB
3D65
3DA2
3D19
B903
3C3D
3D46
BCBF
BB3C
3C05
BC49
3CC1
3BAC
3D31
BB0A
3BAB
BCB0
3DA7
3D88
BD41
BE0E
BE21
BDEE
BDC2
3D16
3E19
3E00
3E7B
3E2F
3D9C
3DC7
3D96
3BD5
3D82
3C03
BA62
3D32
3D0A
BDBF
BDA3
BD00
BBE0
3CF3
3C26
BC61
3D96
3DC8
3D87
BC7F
BDBD
BDED
BD6B
3D96
3DF6
3E0F
3E72
3E0A
3DCD
3DA3
3D01
BBC0
3D08
3D3C
3C57
3D90
BC7D
3AF1
BC9D
3D5C
3D1C
3D9C
3C09
3D17
3CE2
3DC8
3DB9
BCC1
BD86
BD2C
BD38
3D0A
3DCE
3E10
3E2A
3DB0
3D9E
3BF1
BCC4
BC8E
3C27
BCD8
BD0A
3D6D
3DA4
3CF5
3D02
3D85
3DA2
3D25
3D8B
3DBA
3E0F
3DF7
3D45
BD6C
BE06
BD60
BD8C
3D04
3D96
3E47
3E0D
3D3B
3C84
3C31
BC2C
BDD0
BCB1
BCA9
3C6E
BA57
3D4B
3BFD
BC30
BCC9
3D93
3DB9
3E09
3E01
3E1A
3DF6
3CB5
BE0B
BE28
BD9F
3CEB
3CD7
3DDF
3DD1
3DC1
BCC2
BD33
BDA0
BD03
BD6F
BD78
BBD4
3CBE
3D42
3C7B
BDF1
BDB2
BD69
BD14
3C1E
3DA9
3D8A
3DB2
3DDF
3C41
BDFF
BDF2
BDD9
3B72
3D16
3D3F
3E03
3D10
BDBB
BD2A
BD85
BD92
BDB6
BD8A
3C87
3996
3C6F
BC79
BDD9
BDEB
BDA6
BD21
3CB6
3D75
3DAF
3D1E
3DAF
BD05
3C97
BAF2
BD41
3BD4
BC23
3D6F
3DF6
3D0A
BD9E
BC62
BCAC
BD48
BCEA
3BF2
3C18
3D9D
BA25
BD47
BDAD
BDCF
BD48
3D4F
3D8C
3CBE
3BBD
3D13
BB1B
BD3C
3D3D
3DB4
3E18
3C7D
BD61
3D19
3DD8
BCF7
BAD8
BCA1
BC74
BC53
3C2E
BD28
BB80
3D27
BC8D
BD19
BD58
BD90
BD10
3DC5
3DEF
3D83
3D3A
3C3D
BD70
BAA9
3CE5
3D7E
3E00
3C2D
BC84
3BFB
3D77
3B96
3CC5
3A10
3D35
3D45
3C25
3D2A
BC54
BCEC
BD61
BD9B
BC5D
3C8A
3CAB
3DFB
3DAC
3DAC
3D0A
3AE4
3D4A
3B10
3C83
BD10
3E25
3D54
BCA1
BDA7
3D60
3D08
3CFE
3D14
3D00
3DC9
3CD8
3D50
BD2E
BDD7
BD7F
BCBD
3D0D
3D9E
3D76
3DE3
3D9D
3D6B
3DA3
3DBA
3D72
3D0D
BD0A
BC9D
3E5B
3D8D
BCD3
BCE3
3E12
3C74
3DB7
3D5E
3B0A
3DA7
3D76
BA72
BD1C
BD98
BC9B
3BC8
3CF4
3D89
3DA2
3DAD
3D24
3D6F
3C56
3D7E
3D35
BC12
3D31
3CD1
3DB6
3E1C
3D47
BB55
3DFD
3C60
3D90
3D8B
3D09
3AE7
BC19
BD57
BCFB
BD65
3C86
3D3C
3D09
3D24
3D82
3C5F
BCAE
3CA3
B8A6
BD04
BAB0
BC7C
BD0B
BC06
3D87
3DAA
BD2B
3D31
BD41
BAE5
3DE3
3D84
3CFC
3CE7
BD18
BC60
3B19
3C4A
3C67
3D2E
3BD2
BA95
3CDD
BBDB
BD11
BDA1
BD66
BC1B
BBB0
BCAA
BD79
BD3F
3D30
BD4A
3C98
3CEA
BCE5
3D82
3DCA
3D56
3C14
BC11
3C06
BDA7
BD32
3D59
3B5D
BB02
BBED
BC8B
BDA6
BD98
BDDA
BDAA
BD38
BD9C
BD96
BDA5
BD84
BDAA
3C90
BDAC
BD50
3DFE
3D1B
3D49
BBE7
BD1E
3C28
3C1A
3C41
BD4E
BD0B
BC35
BD0D
BD8C
BDD4
BDAB
BD70
BDCB
BDBB
BD85
BDA3
BD76
BD81
BD26
BD3C
BD61
3CCD
BC8F
BC9B
BCF7
3D4A
BCB7
BD0A
3B36
3D5A
3DDF
3D55
3C1C
3D6E
3DA7
BC07
3B50
BD9C
BD19
BC5F
BDA7
BDB1
BD15
BD96
BCE5
BD01
BD7B
3C08
BD6B
BD3B
3C04
BCDB
BCA9
BB8A
BD14
BD3F
BD8C
3DA4
3E00
3DA0
3DB4
3D5C
3D80
3C18
3C18
3BE3
3C1D
BD0A
BC47
BD46
BCB3
BDF1
BD07
BD4A
BDD4
BD82
3838
BD82
3C4E
BC8F
3C95
3D44
3D08
3DCC
3D5A
3D8A
3D95
3D3E
BC16
BCF7
3D7C
3CA0
3C6F
3CEC
3C32
3D44
BD7F
BD8E
BD97
BDCD
BD69
BDB0
BDF0
BD31
3D41
BC71
3C9B
BD11
BC96
BDFE
3D3C
3DB3
3D52
3D2A
3D3D
3D02
3C85
3C46
BB0A
BBF9
BC8D
BD88
3AD8
BC06
BD4F
BDB0
BDF9
BE1C
BE0B
BE19
BE0D
BDFF
3B92
3D14
3CEE
3C8A
BCCF
BC9B
BC34
BDD6
BDF0
BD1D
3D90
3D39
3C43
BCE2
BDA4
BDCC
BD66
BD1B
BD1D
3C00
BD1C
BD85
3BF2
BDA3
BDC7
BC10
BD1B
BD20
3D07
3D11
BB83
BC6F
BCB6
BBC5
BCE7
3D2A
3C48
3CB3
3B14
3C94
3D17
3D12
BD69
3B1E
3DC0
3BA2
3CC2
3DAC
3DB6
3D7A
BAA5
BCE1
3D32
3A04
3D71
3C96
3C99
BBCF
3CB5
3CE2
BD03
BCA8
BC15
3CA9
3D01
3D02
BBAC
BC82
3A8D
BD03
3A09
BBB7
3CC7
3D1A
3D3D
BCE6
BB3D
3C97
3D01
BCF2
BCD3
3C9D
BD05
3CEB
BD12
BC17
BCA7
3B8F
3C40
3CE6
3BCB
3CBC
BC99
BBF3
3B58
BD15
BCBE
BD02
BD0B
BD9F
BDC4
3C0C
3D7F
3C33
BCBD
BD4C
BC22
BCF1
BD35
BD3C
3C8F
3B7B
3CAE
3BE0
BC15
BC4F
3AF9
BC08
3CF6
BDCE
BD14
BD48
BD28
BB5A
3D0B
BCA3
BD8E
BDBA
BA83
3CF0
3DC1
3DF6
3D8C
3C80
BBC0
BCD7
BD03
BDCF
BD4D
BC1B
BC0F
BC74
3CCC
3CFA
3A5F
3D6B
3CBC
BD47
BD9C
BD70
BC23
BAE0
3D47
3CCD
BB54
3D96
3D62
BCFC
3CD3
3D9A
3C64
3BFA
BCFA
BCB9
B9F7
BD37
BBB4
BBB3
3CD5
BD60
BB8E
3C98
BC44
3D1B
BD93
BC44
3C36
3CC5
3C24
BCE0
3D8D
3D9C
3DAB
3DEF
3E0A
3DFA
3E2D
3E07
3DBB
3D49
3D15
3D00
3D10
BD4D
BD37
BCC5
3CB7
3D85
BD05
BCD1
BC96
3D28
3D8E
3CB0
BC9C
BD36
BD59
BDA9
BADE
3D97
3DB0
3DCC
3D71
3DA4
3DBC
3D6E
3D78
3CD1
3D87
3E0B
3DF1
3DB5
B98E
3CDA
3DA8
3D04
BCF7
BC9E
3D16
BDF0
BD9D
BDA9
BE0C
BD34
BBD1
BD3A
3BFB
3D27
3DA7
3D19
BC1F
BC2C
3CB9
3D08
BD05
BAAF
3D9C
3DAF
3C87
BB82
3D80
3DA5
3DC3
3D7A
3CD1
BC3F
BB9F
BE24
BE2D
BA98
BD67
BD4D
BC81
3D17
BBED
BC54
BCCC
3D2B
BD0D
3BD6
3CDC
BCA4
BD95
BD4F
BD08
BCAB
BB88
3D89
3D83
3CA9
3D6B
3CE8
3CE6
BCFB
BDB6
BD98
BD14
BD86
BD42
3C39
3D2A
BC02
3BB5
BC9B
BBE0
3D0B
3D88
3C3E
BC05
BD1F
BC99
BCFE
3CDA
BB85
BBD1
3C6D
3CDB
3D80
3DF2
3E31
3DFC
BC34
BDB3
BDA5
BD86
BDB5
3B1E
3C42
3D60
3D3D
3D0F
3D5A
3D96
3C85
3DAA
3AD6
3D27
BD17
BD0D
3B1D
BD03
BD2F
BC71
3C54
3D0C
3E16
3E67
3E46
BC01
BD86
BD61
BE03
BC15
3D5E
3D8A
3D81
BBC2
BB2D
3C7A
3D44
3DE6
3E03
3CEB
3DAC
3ABA
3B74
BC43
BCCE
3D0A
BC0D
BCA4
BD9D
BC15
3DAA
3E1D
3E15
BD6E
BD39
BDF8
BE15
BBFF
3DF5
3DA8
3CAB
BC91
BCE7
BC37
3D13
3D29
3DBA
3D4F
3DC7
3D81
3C97
BD85
3C7E
BB96
BCE5
BDFD
BE10
BDC0
3D6D
3E16
3E11
3D54
BCFD
BE15
BDEB
3D08
3D5C
3DA6
BCC7
3BBA
BC80
3CA4
BBB3
BC06
3D40
3DD4
3E25
3D05
BD21
BCF5
3CFD
3D7D
BD0E
BD3A
BE2A
BE1E
BE02
BD01
3D26
BCA9
3DC7
BD68
BE11
3D31
BD94
BD22
BDB6
BD9C
BCC0
3CAF
BDCB
BD7F
3C67
3DF9
3E0A
3DA4
3C61
BCFD
BAA6
3D30
BC9C
BE08
BE16
BE52
BE2B
BD6E
3D0C
3D57
3D97
BD1E
BE03
3D75
BDE5
BE37
BDF5
BDF1
BD8A
BD50
BDD4
BDA9
BC43
3DB5
3DC8
3CD5
BC85
BD6C
BDB8
BE0E
BE14
BE09
BE07
BE1D
BDE4
BC25
3DB2
3D15
3CC1
BD8C
BD80
3DBE
BD91
BE3A
BDDF
BDAE
BD94
BD19
BDB2
BDAC
BCF1
3DDB
3DF0
3D39
3D07
BDD9
BDE9
BDE4
BE41
BE4B
BE69
BE37
BDD1
3CE3
3D97
3D88
3C9A
BCA4
3B4B
3E09
BC42
BDBC
BDAF
BE2C
BE1E
BE00
BDDD
BDA1
BCFA
3D3D
3DEC
3C85
3C83
BDDD
BE13
BDD8
BE36
BD8C
BDEB
BD12
3CAF
3D9D
3DCD
3DB9
3C42
BD2C
BBFD
3E1F
3CF2
BB3E
BD8F
BDD0
BDB8
BDF3
BDDC
BD94
BD31
3D43
3D07
BC37
3C5E
BD19
BD5C
BC31
BC83
BBCD
BD58
BCBE
BC64
3D62
3D56
3E04
3D24
BC64
BD25
3DBB
3DF1
3D15
BCA7
BD38
BD73
BDBA
BDAC
BDBD
BD91
3C5D
3CF1
3D0D
3D34
BBF1
3B64
3D47
3D9C
3D34
3D4F
3D13
3D79
3DC6
3C81
3DAF
3D13
BD93
BC04
3C1B
3D00
3D4B
3D55
BD08
BCEF
3CD7
BD11
BD8B
BD67
3D83
3D0F
3DA8
3DBB
3DBF
3D54
3DA5
3DA0
3DC6
3E03
3DEE
3E0C
3E2D
3DC2
3DB2
3C8D
BD3F
3D50
3D0F
3DC5
3D0C
3DD4
3DCF
3D9B
3D44
BC8A
BCC4
BD28
3D26
3C57
3DC1
3DBE
3DEA
3E22
3E04
3E0E
3DFF
3E24
3E45
3E1E
3E16
3DF2
3BCA
3D80
BC38
3E0B
3E0E
3E0F
3DCE
3E40
3E08
3D10
3CD2
3D4E
BD36
BD8D
BB20
3D41
3D85
3DBE
3DF1
3E0B
3E37
3E3F
3E20
3E4D
3E2B
3E5F
3E02
BD14
BC93
3CAA
3CD3
3E13
3DFE
3E51
3E0D
3DD7
3DED
3D93
3CA3
3CF5
3C98
BD58
3CEC
BBFB
BBEA
3D73
3DE1
3E23
3DEB
3E22
3E36
3E24
3E66
3E48
3E10
BD5F
BCF7
BC04
BCEC
3D91
3D71
3D0D
3D07
BCCC
BD29
3C77
3D0C
BC97
3D65
3D71
3D30
3BFE
3BEE
3DD8
3DC0
3E0A
3E24
3E09
3E2C
3E62
3E38
3E1A
3D86
3D69
BD01
3C6F
3C81
3C9E
BDA0
BDF4
BE46
BE25
BDE1
BD11
BC75
BC66
3D6F
3CFE
3D27
3D19
3D02
3CE9
3D29
3E1D
3E00
3DD4
3D94
3DC8
3DFE
3DA5
3D12
3CF2
BD05
3BE1
3C3A
3D24
BDAA
BE17
BE53
BE07
BE10
BD7B
BD11
BD73
BCCC
3D8A
3DBC
3DE4
3DFC
3DDB
3E0C
3DA5
3D59
3D0A
3D91
3DB8
3D5C
3D84
BCFB
3C7B
BCCE
BBBA
3CC3
BCFE
BBA1
3C51
BDE2
BDE3
BD95
BCE1
BD65
BCA6
BCC7
BBC5
3CB8
BC4D
BB80
3CB4
3D06
BD2E
BDC8
3B3B
3B53
BBA7
BD0E
3A00
BCC4
BC4B
BC44
BC9A
BCF3
3BC1
3CE7
BD4A
BD28
BDC2
BE12
BE0C
BD6C
BE0D
3B4E
3CBF
BE06
BCA2
BC5B
BD24
BE44
BDEB
BE14
BD94
BD80
BDD0
BD01
BC3A
BD03
3B94
BCDF
BC01
BCBC
3D03
B91E
BC83
3C15
3D06
3C8D
BD04
3CA3
3CE9
3C2B
BBD3
BCCA
3DA8
3D56
3B8F
B99F
3B9C
3C80
3C04
BD0A
3CD3
3CC5
3CE2
BC81
3CF7
BCB5
3C90
BC94
3BAD
BCEC
BC01
BD85
BD9B
BDAA
BD10
BDA2
BD9F
BD73
BD91
BDF9
BCAE
BE02
BC38
BD0F
BE21
BDC4
BE1F
BDA9
BDC8
BDBB
BD04
3B5D
BCCD
BC0A
BCA8
3D0F
3BDC
3BB7
BDC9
BB95
BDCF
BE09
BD9D
BD30
BD88
BC7F
BD98
BE02
BCE4
BD71
3BA7
3D34
BDCE
BE09
BDA8
BDE5
BDC8
BD91
BC98
BD34
3C8B
3BB2
3C5F
3C12
BD69
BDB1
BDBC
3D51
BD5A
BDD7
BD93
BD97
3C5C
3D72
BD47
BD40
3B84
3C9B
3CEF
BC9E
BD93
BCC6
BCD8
BCE7
3BFA
3C51
3D2D
3DED
BC8D
3C94
3CBD
BC3F
BD68
BD47
BBED
BC1C
3C88
BD89
BDA6
BDCA
BDBA
3BA4
BD83
BDA2
BDB2
BDA9
BDC8
BDA7
BD11
BD64
BD10
BD67
BCA6
3D09
3D42
BCDA
BE05
BC23
3C9C
3B63
BD75
3D33
3CB0
3D3C
3D00
3CEB
3D48
3C28
BC01
BC8C
BDAE
BDBD
BDAD
BDDD
BDB9
BDB6
BD30
BE00
BDE5
BD86
BDAD
3BBC
BD09
BD60
BDAB
BDA7
BCAA
3D7B
BC57
3D64
3D8C
3D03
3D89
3D84
3DB0
3DA1
3CBC
BCCF
BC10
BCA6
BCBA
BD11
BC86
BC39
BD08
BD72
BD69
BCEE
BD21
BE16
BE14
BD94
BCC7
BD78
BCAA
3D51
3D2E
3E07
3DBF
3DD8
3DA2
3CA3
3D8D
BCA0
BD00
BCEF
3B63
3D81
BAEE
3C01
3C54
3C86
BD6B
BD2F
BDB3
BD67
BD52
BDF0
BC87
3C3B
BCE3
BDCC
BD09
BC7B
BC84
3DB7
3DBD
BB25
BBEC
BCC7
BD24
BD48
3C8F
3AC2
3B62
BAE4
3CAE
3C77
3CD5
BD52
BDB7
BD13
BDB2
BDC4
BDA7
BDCB
BDA8
BB6D
BD7D
BD4C
BD21
3D27
3C4D
3C92
BD09
3C61
BC88
BD00
BCA3
BD1B
B9AE
BB93
3CC6
3D8C
3CEA
3D95
3BAB
BD5C
BC93
BCF4
BD1C
BDB7
BD90
BDBA
BDA9
BDF3
BD5C
3C34
BCB1
BD2E
BD2A
3D80
BE07
BD80
BD13
BD85
BD92
BD4B
BD3E
BC95
3D3F
3B7C
3C9B
3D26
3CCE
BCE1
BC93
BD0E
BD9A
BDF8
BD96
BDFA
BE05
3C14
BD42
387B
BCFF
BD69
BD63
BC42
BDA1
BD6D
BD20
BDAF
BD4A
BDAE
BC70
BC3C
3D8A
3C00
BC5C
BCAD
3D8B
3D94
3D2D
3D99
3C20
BDA9
BE07
BE10
BE72
BD3B
BE2F
BD8A
3BA8
BCF6
3D12
BD25
BE00
BDC7
BD86
BDBF
BD21
BDA3
3CA2
3CB6
3BFA
BC5C
BCE2
3C66
3D9F
3D9C
3E03
3D6C
3CA1
BD8C
BD6D
BDE6
BE38
BA07
3B78
3DA7
BCF0
BD71
BC81
BCD2
BCD6
BDA1
BD3E
3AE2
3C36
3A95
3D7D
3D25
3CBA
3CB8
3D53
3BCF
3CA3
3D76
3E17
3D87
3CC6
3C65
BD9F
BDDA
BCDC
3DA2
3DF7
3D35
BCDE
BB71
BD00
BB62
3D6E
BD5C
BC4B
3D47
BB9D
3CC1
3D4E
3D0A
3D85
3D33
B9E1
3BEC
3D9E
3E08
3DDE
3E01
3E0D
BD8A
BD84
BCD5
BC1A
3DEC
3E09
3DAA
BD0D
3D16
BD9C
3DDE
3DFD
3C92
3CF1
3D38
3D43
3D20
3DE4
3E12
3D85
3D8C
3C03
3DD3
3DE1
3E21
3E19
3E01
3DD8
3D23
BD02
BC6F
3CBB
3D75
3E53
3D85
3B98
3D54
BC50
3D1E
3DF7
3D90
3D04
3DA4
3D70
3DAF
3DE4
3E23
3E09
BC33
3D02
3DFF
3DDA
3E25
3E0A
3DF2
3DB1
3DC5
3CD2
3D27
BC33
3D8E
3E52
3E02
BC9F
3C2F
3DB4
3CAB
3D92
BBC3
3CA9
398C
3D9C
3D92
3DE9
3DCA
3D7D
3D87
3D21
3DEE
3DC8
3D8B
3D83
3D54
BCDC
3D96
3CB2
BB12
BDA9
3DB8
3DED
3D74
39E7
3D76
3DAD
3DBC
3DEF
3BC8
BD8C
BD52
BCD6
BD79
3C8E
3D0D
3C37
3D22
3D0C
3DBD
3DCE
3D91
3D75
3D0C
BC5A
3D6F
BCB9
BD19
BD3F
3D83
3D8E
3D1F
3B4A
BDC1
3D11
3DBD
3D8B
BBB9
BDBD
BE05
BD87
BE0A
BDAF
BD61
BCAB
BD32
3D61
3D83
3A8A
BCD8
BC12
BCC0
3C18
3B9E
BB8A
BDB4
BD7E
3D18
3DB0
BD33
BC15
BD34
3D46
3E01
3D98
BD97
BE18
BE24
BDD1
BDAC
BE12
BDBD
BD89
BD97
BB97
BD8C
BD3E
BD92
BD26
BCEE
BD83
BD8E
BDAF
BD51
BA9F
3A50
3CC2
BC81
3BFE
3D8C
3DFF
3D89
BD7C
BDBA
BE11
BE22
BDAF
BDF1
BDAF
BD8A
BD67
BD66
BDA5
BDF5
BD0E
BE00
BDF0
BDC3
BE1C
BDC5
BE09
BD20
BCA4
BD8B
BCCD
BCF7
B8DF
3CB9
3DEB
3CC7
BDB1
BE0C
BDC3
BD61
BD8A
BD57
BCCE
BCE9
BDA2
BDD6
BE10
BDF7
BD5B
BE2A
BDCA
BE08
BE03
BD97
BCFC
BCD6
3CD3
BCC1
BDCF
BC9D
BC93
BD0E
BC4E
3D61
3985
BCCA
3D2B
3BD5
BCF3
BDA3
BC06
BD4F
BD7D
BD8D
BD7F
BDF0
BE2F
BE07
BE1F
BDF1
BDE9
BCA8
BD7E
BD6D
3C99
3C21
BD95
BBFD
3D03
3C20
3BBE
BBBE
3DFE
3DB6
3E17
3DF0
3C30
3C1A
3C3B
3B66
BD89
BDA0
BD31
BDC2
BD8B
3C29
BD8A
BD66
3AD2
3CCE
3B4C
3D93
3D04
3D75
3D2A
BC40
3D05
3CFF
3D91
BB97
3DAC
3E3A
3DB1
3DEB
3E02
3DBC
3D9C
3DD6
3CF7
3D71
3D6D
3CE3
3D41
3C50
3C4A
BCAC
BBBE
3C46
BD96
BC28
BB59
3D90
3D58
BBD0
3CB1
3C9D
BD06
BBA5
3D34
3E0D
3E14
3DF3
3DD0
3DD5
3E13
3D90
3D4F
3D7D
3E14
3DAC
3D9C
3DAD
3D52
3D3E
3D2C
3D7D
3B89
3D0F
3DE5
BC52
BC4A
3CF3
3CC2
3CDD
3D10
3CFA
BD9F
BCAA
3D18
BBB8
BCC7
BB7F
3D49
3CD6
3C78
BD3E
3D91
3DBC
3C5E
BB0C
3C8D
3D50
3D11
3D81
3DAF
BC48
3CFB
BCFA
BC4E
3CA3
BC81
BC23
BCCA
BB77
3C0E
3C25
BD03
3C9A
3C65
BCCA
BCD7
BC5A
BD34
3C6A
3D5A
3CFD
BCE0
3CA5
BC18
39B4
3CD0
BBB8
BC40
BCEF
BCC4
BC5E
3CB4
3CD7
BCE9
3CA9
BCAF
3BD0
BCCD
BD6D
BDBC
BD98
BD12
BD24
BD2D
BCF4
BCFD
BCC9
BC4A
BD67
3DA9
B983
BE02
BE07
BDF3
BDB5
BDC5
BD12
3C15
3C6D
BCE8
3D04
BC2B
BC28
3C18
BAFA
BDB6
BCB9
BD6C
BDF8
BD94
BCC4
BCA9
BD3C
BC6B
BD5F
BD29
BDD7
BDEA
BD6D
BDDD
BDBE
BD0E
BC2E
BD0D
BCEE
3CBC
3A06
BA9A
BCF0
BD09
3C0F
BCF5
BDC9
BE1A
BC4E
BD6C
BD3E
BCC7
3B02
3D51
3DC8
3CD5
3CEC
3D86
BCB1
BD9B
BC26
BDB8
BDCA
BD68
BD90
BD3B
BD2F
BD46
3B83
BD86
BD09
3C55
3CEE
BAA7
BDF8
BCC9
3D90
3DDE
3DAC
3DF5
3E17
3DCD
3DBE
3DFD
3D32
3D3C
BC40
3B6E
3D60
3D88
BC25
3AAC
BD8C
3D0E
3BDB
BC93
3B8E
BD80
3D43
3C9A
BB3F
3C19
BD38
3D13
3D2C
3DBF
3D24
3DAB
3D86
3DF7
3D9A
3DA9
3D8B
3D9F
3D4E
3D72
3D52
3D24
3D11
BC13
BD64
BD73
BDA3
BD64
BDC1
BDA4
3C71
3C12
BB9C
3D49
3C0D
3D13
3DC4
3D62
3D35
3D2A
3D16
3D89
3D4F
3D0D
3D8D
3D85
3D5D
3D93
3CDC
3D66
3D55
3C3C
B9EC
3CE6
BDCB
BE2F
BE31
BD5C
BBE1
3C39
BCFA
3CC4
3DC7
3D54
3CC3
3DA3
3CAA
BC26
BCB5
BCCF
3D33
3CF8
3D3B
3D35
3CFD
3D12
3D21
3BC0
3DAB
3D08
3D6A
3C98
BD92
BD8C
BDC5
BDA6
BC8D
3D56
3D11
3D13
3DAA
3DAD
3CAC
BBDC
BD27
BD48
BD81
BD60
BCB1
BCE9
BCE7
3D96
3D43
3CD3
3D4B
3D9D
3DA0
3D85
BAE8
3C4C
BCFC
BE32
BE2A
BDCF
BD42
BCCA
BBE6
3D67
3D13
3BE3
3C94
BC88
BD5F
BDE6
BDC1
BDD5
BDEC
BE00
BD41
BD09
3C43
3D81
3DB5
3D94
3D66
3DB3
3CE1
3D23
BC50
BE13
BE14
BE3F
BD01
BD47
BCE8
3DA0
3D91
BDFD
BD6C
BB89
BDC2
BDEB
BDF5
BE05
BDD2
BDDF
BDD9
BDC3
BD98
3D8A
3DB5
3D82
3D31
3D62
3D7B
3C9C
BD8F
BE1B
BDE1
BDCA
3C43
BD1C
3D33
BA34
3D2E
BE0C
BD1D
BD33
BDF3
BDEF
BDD0
BD87
BDDA
BDB6
BDDD
BE07
BDA3
BD3A
3B00
3D79
3D45
3D7C
3DA1
3D30
BD46
BDC6
BE00
BDED
3BA8
BD20
BD3A
3BC5
BD2E
BDBD
BD6E
BD80
BD6F
BCCF
BD95
BD4A
BD8D
BBE4
BD9D
BDB6
BE03
BE14
BD87
BD01
3D26
3C83
B97B
3DB3
BCB3
BCB5
BD33
BD4C
3D16
BCA6
3BED
3CD2
BD21
BBC5
BD8B
3BD9
BD45
BA8F
3B0A
3BDB
BD6E
BCAC
BC77
BD56
BE2A
BE3B
BDF3
BCAE
BC82
BC90
3905
3D5B
3BEA
3BF6
3ACD
3D6A
3D68
BD91
BD98
BD43
BD53
3D5A
3D69
3D15
3DE4
3D0F
BBF8
BCD6
BDB3
BD25
BD75
BCF4
BE02
BE14
BDEE
BCCB
3CBE
3DC7
3D82
3D35
BC5B
3C8D
3C31
3E1F
3D44
BB57
BBDF
BD2D
3BCB
3DC9
3DBE
3DB4
3DA6
3C53
3C7D
BD47
BD3F
BD60
BCD3
BD92
BDBA
BE18
BC92
3D37
3DB1
3D93
3D98
3D58
3D57
3CCF
3C85
3E21
3DD3
3D0A
BD89
BD0E
BC84
3D35
3D99
3D79
3D86
3DA6
3D87
3C87
3CC3
3C00
3D59
3B02
BD92
BCA9
3DBA
3DD1
3DD1
3DDB
3DAB
3DA0
3CD0
3CF6
3D69
3E26
3DDD
BD0F
BD46
3DAA
3BFE
3D50
3D5C
3D81
3D82
3DC6
3D8D
3D9E
3D82
3DB1
3D84
BB7C
BCE5
3D21
3DFE
3E20
3DC6
3D9C
3CFC
3CF7
BC50
BCDB
3E08
3D3F
3E33
BB91
3CD5
3C8C
3D05
3D66
3CB7
3D38
3D9D
3DF9
3DFC
3DC1
3CFB
3D90
3D31
BCCC
3D25
3D73
3E03
3DDC
3DE2
3D42
3D4A
BB26
BD89
BD3A
3DA3
3D88
3DF0
BD17
BD2D
3B89
3D7C
3CD9
3D21
3D2E
3C92
3D3E
3DA4
3D89
3DB5
3DA2
3CD6
3D95
3D42
3D5B
3DD1
3D88
3D38
3C87
3CCA
BD1C
BDB0
BD60
BBCD
3D47
3D33
3CCA
3D20
3C88
3E0D
3D3E
3D77
BCB8
3CAE
BC01
3C0C
3D47
3D0C
3DAD
3D1A
3D02
3D54
3DAA
3D2F
3D28
3D00
BCD6
BCD5
BDDA
BD23
BC0D
BD26
BB7D
BD20
BD36
3DC1
3DCA
3DC5
BCBE
BC21
BD8C
BD62
BD6F
BC02
BC32
3CC8
3D1C
3D62
3CD3
3CA8
3D20
3B18
3D2D
3D4A
BCD5
BD78
BC8C
3A08
BAB0
3CAC
3DE4
3D35
BD4B
3CB0
3E08
3DB6
BBC3
BD06
BD0A
BCBB
3BE6
BCD4
BC0A
3D0A
3D76
3D30
3D81
3D0B
3DC3
3CA8
3CCB
3D4B
BC40
3D16
3D5C
BC02
3D10
3BAF
BD1D
3CD7
3CE5
BC3A
3A95
3D20
BCBE
BCAE
BC34
3D7E
3C60
3C6F
3BF1
3D80
3AA3
BC34
3B7B
BC81
BB8C
BCF5
BA91
3CBF
3C78
3D84
3D68
3B89
3D34
BC8E
BDBF
BD12
BC5F
BCC2
BD16
3D03
3CA9
3C18
3CD0
3D2A
BC28
BD32
BD83
BD61
BD4B
BC49
BD67
BD88
BD5A
BD6A
BD46
BD77
3CB3
3D2C
3D81
3D87
3D36
3D9F
3CFD
BCCD
3C22
BB70
3D69
BAB9
3D81
3E22
3D0D
BC72
BCED
BCA5
BD49
BD38
BD50
BD6D
BD62
BDF0
BDEC
BDEA
BDE3
BDE4
3CED
3D14
BCBD
BDAC
BD76
3BF9
3C82
3B25
BCF1
BC97
3B41
3CED
3DAB
3DE7
3E17
3DF0
3D8C
BC40
BC80
BD98
BCF1
BD5F
BD53
BD5B
BDD1
BD8B
BC16
3C02
3D5C
3D71
3DE3
3D25
3D84
BC53
3BCC
3CA1
3C79
3C82
BB4F
3C64
3C2A
3CE0
BD86
BDBA
BDB8
BC6C
BCCC
BD99
3C34
BD49
BD5E
BC96
BCC8
3B54
3CF4
3C91
3D89
3D84
3D7F
3D25
3CA1
BCEB
3CA5
BCE8
3CD6
BC9B
BCF2
BC7F
BC2E
BC86
B95A
BCE9
3BBB
BB75
BAB3
BC91
3D06
3D30
3D0E
BCF8
3A35
BC95
BB4E
3D11
BC00
3C64
BC74
3CA8
BC9C
3BCF
BC12
BC90
3C36
BCA7
3C94
3C87
3D1C
3D81
3DBB
3DEB
3D3E
3D4C
3DD3
3DEC
3D8D
3D93
BC56
3E06
3C51
3DFF
3DE3
3E19
3E06
3E0D
3D80
3D58
3D06
BBE8
3D0F
3B0F
3C9C
3D10
3B3F
3D98
3E02
3D07
3E06
3E11
3DB2
3D81
3DBF
3DBD
3D90
3D8C
3DF9
3E01
3DB1
3D69
3DC6
3DE8
3DB9
3E01
3E0C
3DB4
BD07
3C89
BC25
3CFE
BCCE
3C93
3D55
3DC9
3D91
3DB5
3DB3
3DD5
3DE6
3D9B
3D72
3D2D
3C22
3D3A
3D10
3DC7
3D67
3DA9
3DB8
3D9A
3AEC
3D0E
3D6C
3DD3
3CC1
BD96
3BE4
3C7D
BCB2
3C6F
3D8D
3BE5
3DB6
3DE3
3D72
BBD4
3DB2
3CF8
3D9A
BB67
3D3B
3CF6
3D47
3D40
3D40
3D6F
3CAD
3D81
3CC5
3D15
BCFE
BD91
BDF5
BDAE
3D31
3D7B
3BF6
BC0B
3DD5
BCA8
3E16
3D01
3D72
3B4F
BCA5
BC7A
BD1F
BDA3
BD84
BD07
3D13
3CA5
3D30
3C80
3D12
3D80
3D7A
3DB2
BCD9
BD24
BCC6
3CC9
3D5B
3D34
BD07
3D21
BD75
BC1A
3DA8
3C81
3D02
3CF7
BD09
BDC6
BD8D
BD5E
BD01
BD02
BC92
BC5D
BD37
BBA1
BD23
BBF0
BCA9
BCA5
3A91
3C8E
BBDF
3BB0
BD47
3B24
3B16
3E05
BDCD
BCCD
3D89
3B96
BC29
3BE0
BD3D
BD87
BD3D
BD3D
BD8D
BDCD
BCF4
BBDC
BCD4
BC64
BB25
BCE6
BD38
BD4E
BBEA
3D82
3BAF
BCF7
BD56
3D00
3D4D
3D81
BD66
3D71
3D31
BB25
BCAD
39D1
BD5A
3C10
BCBE
BD97
BA92
3BAB
3BC9
BCF0
BCC5
39A6
BB1F
BCA4
BC95
BCA6
BBDC
BB9B
3C3A
BD9D
3BC0
3D9F
3D70
BD44
BB89
3C30
3C8F
BD2B
BD31
3D32
BCBB
3BD3
BD0C
BD2C
BCFA
3C37
3D08
3C94
3CC7
3BD2
BB4C
3A87
3D50
3D88
3B4F
3DB8
3D21
BD85
BCC4
BD54
BB91
3C6B
3C51
3D13
3CB5
BD35
BC09
3BF6
BCB9
BC09
3AC3
BDA4
BBB3
3DA7
3DFE
3D9B
BCCA
3D21
3BD8
BC1A
3BCB
3CA8
3D6E
3DEE
3C65
BE14
BDE1
BBFC
3D00
BCAB
3D36
3CE9
BBA6
BC47
BCCB
3C8D
BD37
BD07
BD33
BD72
BC6B
3E0C
3E1D
3CF5
BD2A
BC81
BCF1
BC7E
3A08
3CCF
3D86
3E1D
3E10
BD01
BCEA
3C3B
3C98
BBA7
3B7C
BCEE
BD8B
3C1D
3CFC
3D36
3B25
3CC2
BD49
BCE8
3DC6
3E10
3DFC
3D01
BC41
BCFD
BBD3
38A3
BCC2
3CF0
3D97
3E18
3E81
BC79
BD36
BD95
3D89
BBF7
BD16
BC40
BDB4
3D68
3DC0
BBCF
3CA1
3C0D
BD1F
3D37
3D7A
3D48
3D8B
3D00
3891
BCE8
3C5D
BCEC
BCDB
3CE2
3D2D
3E47
3E2E
3CD3
BDFD
B9EF
3D00
3CDA
3D09
3CC3
BE32
BBA5
3CEE
BD04
BCB3
3B0F
3CBD
3D14
3DA9
3DD1
3E07
3D5E
BD07
BD94
BCDA
BC56
BCAA
BC93
3D31
3D22
3DE8
3CA3
BDD4
BC16
3D20
3BE0
3DEA
3B7D
BE15
BC57
BD27
3BA2
3C57
3D23
3CC4
3D5A
3E06
3E09
3E1E
3B93
BD36
BDAE
BD92
BD85
BBDD
BD08
3C9F
3D95
3DAB
3DD0
BE33
BD2E
BCB5
3DB2
3D92
BD19
BD1F
BC8C
BC7A
3D0A
3D1F
3D97
3DE5
3DBE
3D32
3DB7
3DFA
BD01
BD8E
BDBD
BD78
BD78
BD31
BCA3
3BF1
3DD2
3CDA
3CB1
BE35
BDFB
3C65
3B44
BB58
3CC5
BD68
3C03
BBE3
BB17
3B8A
3D2F
3D78
3D97
3D93
3D22
3D95
BC99
BA87
BD1C
BD49
BCBC
3CE2
3CAD
3D74
3DBE
3D93
BDF6
BDC6
3D14
3D07
3D96
BBF9
BCB3
BD49
BD95
BD0A
BCD2
3CA7
3DCE
3D90
3CBC
3CB4
3D5A
3BBC
3BDA
BD45
BCB4
3CD8
3C62
BBBF
3C12
3D8F
3D9C
BCAD
BD1C
BD60
BD4D
3D02
3DE0
BDC6
BD4C
BD9E
BD8A
BC0E
3CD5
3C2E
3D84
3D29
3CC6
3D40
3B16
B9EF
BC0D
3C9F
3CC8
3D2E
3D55
3CDD
3D97
3D91
BBFC
BCB2
BCBA
BDE6
BC24
BCB1
3D5F
BDC2
BDC6
BBE9
BCAC
3D3C
3DDF
3CEE
3DA7
3D8C
3D4B
3D1E
3C78
3CD1
3DAC
BC7D
3CAF
3DA3
3DA6
3D91
3D33
3BEB
BCB5
BD1E
BD80
3A67
3CA3
3D7D
BB8B
BD5A
BD3A
BC87
3CC6
3DB8
3E25
3D11
3D3D
3CC1
3D20
3CF7
3DA2
3DFC
3D66
3980
3D11
3D6B
3DE7
3DC1
3C85
BCFB
BE29
BDC2
BC83
3D0E
3C25
3D5D
3C6F
BD43
3D0F
3D38
3DF7
3DC3
3D00
BB9F
BD01
3C1C
3D04
BC27
3D9B
3D06
3DEB
3DA3
3DB6
3C7B
3D85
3B7E
BDD6
BDD4
BE00
BE19
3CFA
3DDB
BC66
BD11
BCBD
3DC2
BD92
BCCB
BCA3
3CB0
BC08
BD3F
3C00
BDAA
BC53
3D88
3D9C
3CB9
3D78
3D86
3D16
3C0E
BC54
BCDF
BE00
BE05
BE27
BE6B
BD66
3D33
BC5C
3C03
BC74
3D78
BD79
BDBF
BE07
BDC4
BD99
BC24
BC03
3C2F
BA92
3D52
3CB2
3C0E
3D29
3CB2
BD2F
BCF9
BD14
BD36
BDE7
BE11
BE32
BE2A
BCD4
BCD9
BD07
BCE9
BADB
BBB4
BD86
BE0E
BE55
BD81
BDD5
BD20
BD55
BD7F
BDA8
BD8F
BDFA
BDA1
BDAC
BDC9
BD7C
BD7B
BD3D
BD91
BE30
BE1D
BE06
BE22
BD94
3B10
3CEE
3C87
BC45
BCCB
BC0E
BDDC
BE0D
BDC8
BD82
BD99
BDB8
BD49
BDCC
BE1F
BE29
BE6C
BE49
BE40
BDF6
BE29
BE24
BE1E
BE3E
BDB8
BD42
BD93
BD0A
BCD3
3C8B
B70C
BC5F
3CA5
3B04
3D65
3CEA
BBE8
BD7D
BD9A
BD63
BE02
BDD0
BE0B
BDBA
BE1D
BE20
BD89
BD81
BE20
BDC7
3C90
BD25
BD1D
BD4C
BCB4
BCC0
BC9E
BD03
BC62
3C9B
B753
3CEE
BBC4
BCEE
BCE6
BCFE
BBB7
3BB1
3C9D
BD03
BC46
3CB5
3C7B
3B89
3C1A
BAD3
3C4C
BBD7
BCAD
3C30
3D01
3D06
BC89
3B8D
BCC9
3C69
BBC4
BC31
BC8C
BCFC
BBFB
3CC9
BC6C
BD3E
BD02
3C8E
BD92
3CAD
BCC0
BD7C
BBCA
3CA2
BBB0
BD74
BCA9
BCAA
39EE
BAD4
3CAD
BC61
39C8
BCBA
BB6E
3C61
3C06
3CFD
3C98
BD07
BDB5
BDDF
BDEF
BDC9
BD9C
BB12
3C25
BD6B
BD90
BDEA
BDD5
BD59
BBEE
BCED
BCFB
3C73
BCDE
BD9A
BD59
3C76
3CB0
BA69
BC4F
3CF8
BAB9
3CD7
3D65
BB5A
BDA6
BD43
BD68
3D1F
3E10
3D81
3DD0
3C69
3DEF
3D2F
3D41
3CDE
BD06
BD41
BDFA
BD9F
3CED
3CEF
BD02
3C84
3CEE
3B55
3D32
BB53
BC61
3CD2
3D3D
3D63
3D05
BD67
3D30
3DDF
3DA4
3E00
3DDD
3E15
3DDA
3DEB
3D84
3DA6
3BE1
3CC8
3BE4
3D09
3D01
3D48
3D56
BC80
3DA2
3D06
3CDD
BD09
3CCD
BC90
3DD8
3D61
3CB5
3D8D
3D99
3CF6
3B83
3D8D
3DD7
3E08
3DD8
3D48
3D5C
3D41
3D38
BC4B
3C93
BD1C
3B0B
BC46
BC05
BD2D
3CE0
3D61
3D7B
BC8D
BC24
3D71
3D01
3DA0
3C34
3D2D
3D93
3CF3
3DDE
3DCD
3DF2
3DC9
3DBF
3D53
3D80
3D5B
3CDB
BBEF
3B85
BCD5
3D32
3BC1
3C6B
3C3F
3DB0
3E03
3E21
3D61
3CE6
3E0F
BD3D
3D40
3D41
3D8B
3D5B
3DD3
3DF4
3DD1
3CE0
3D1F
3D76
3A9A
3D67
3BD9
3BD0
3C99
3C31
3BA2
3C42
3C3F
BC36
3D7C
3D21
3E07
3E04
3C7C
3C81
3DC6
BC92
3D86
3D7E
3DB4
3D77
3DCF
3D93
3D9E
3D82
3CA7
3D5C
3DA2
3D63
3D6A
3C66
3CFB
3D94
3CA8
3C85
3D23
3DAB
3CA2
3D8D
3E29
3E07
3D66
3C87
3DA4
BC90
3D97
3D9E
3DAF
3DEE
3DB0
3D88
3D23
3B0B
3D3B
3D90
3DDF
3D9A
3D45
3A5C
3D98
3D7D
3CD1
3D3C
3D8D
3D1C
3C19
3D97
3E2A
3E46
3D44
3CE8
3D9B
3B3E
3DEE
3E16
3DA3
3DB0
3D51
3C92
BC17
3CD4
3D93
3D8B
3DC4
3DE2
3C4C
BB96
B97A
3D24
3BFA
3D50
3A87
BC82
BDAC
BCCD
3DAD
3E04
3DB2
3D4B
3D75
3DC8
3E33
3E0E
3CF9
3AC3
BD92
BDBA
BD8C
BD20
3D7C
3E02
3DF0
3DCB
3D16
BD1C
3D07
3D2E
BC3A
BC88
BE17
BE3E
BE69
BE2A
3D71
3DA1
BAC8
3CD0
3D20
3D81
3DBE
3DE1
3D18
BCFF
BDCA
BD0E
BCFC
3C4B
3DAC
3DE4
3DD6
3DA0
3DAD
3D1F
3D76
3DBE
3D2B
B9C0
BE13
BE6F
BE8C
BEA9
BDA0
3D32
BD5A
BC82
BBAB
3D6C
3DB7
3D10
BAD5
BDAA
BD8C
BDDA
BDA2
BDB9
3C4C
3D14
3DCA
3E01
3DAC
3D49
3D4E
3DA1
BD0D
BD09
BDCB
BE36
BE38
BE65
BDB1
3D3A
BD30
3D8D
3CAF
3D89
3D00
3CB7
BE2E
BE1E
BE29
BDD7
BE03
BE08
BDD9
BCB4
3C85
3DAB
3D80
3BC1
BBDD
3C1B
BB15
BDB9
BD63
BD30
3C29
BCEA
BD9F
3D46
BD55
3D70
BBA9
3D16
3D0E
3C34
BE39
BE21
BE28
BE54
BE26
BE2B
BE1C
BDD6
BCE1
3D02
3C39
3C5D
BC49
3A10
3BB6
BCDD
3CCF
3D46
3D70
3DB8
BAB3
3D65
3D65
BC1E
3D6F
3D04
3DDD
3D68
BDAC
BE18
BE30
BE3A
BE2C
BE5C
BE46
BDD6
BD2D
BCB3
3BE9
BD00
3C53
3D29
3D9A
3B1A
3D83
3DB5
3DBF
3DEB
BD76
3D77
3CB5
BC82
3D0E
BBED
3E0B
3E03
BBDA
BDB4
BDBB
BE0D
BE07
BE3A
BE5F
BDEB
BDA8
BC9B
3CAF
3B53
3D93
3D04
3D68
3BA3
3D94
3D31
3DBE
3D75
BDA4
3D8A
3D3F
3D70
3D8A
3D54
3E22
3DDD
3DB0
3C2D
BC9F
BD57
BD71
BDDB
BD2F
BE1A
BD87
BD43
3C5A
3CDE
3CE4
BC28
3D80
3D18
3D52
3D99
3D5B
3B55
BDB0
BBDD
3DB5
BC7A
3DB5
3CD1
3D70
3D5C
3DAB
3D83
BB5A
3C64
3B13
BB48
BD12
BBA2
3B84
3C6D
3C28
3C01
3D8D
3C7D
3D09
3CF1
3D40
3D5F
3BE1
BC99
BDB9
BDCD
3BC8
3B71
3CF5
BD4A
3B74
3C11
3DAA
3DB4
3D28
3D83
3D19
3D1B
3BAD
BD46
3C73
BCAE
3CCB
3C96
3D1D
3C20
BC67
3D3C
3C5E
3D17
3D0C
BDD1
BDBA
BD80
BA69
BCF1
3BFB
BD27
BD6F
BC44
BC61
3D4F
3D81
3D1E
BBDF
3D01
3C9F
3CFD
BCA2
BB87
3D1E
3C97
3CF8
3C88
BCC3
3D7D
3D4C
3D05
BAAB
BDD7
BE06
BD8F
3CD3
BD69
3B4C
BC77
3C10
BCDF
BD8B
BD01
3BC4
3AE2
BCB7
BD3F
3CEF
BB27
BD5C
BC4D
BC80
BAF8
3CBC
BB91
3CCD
3BEC
BD61
3CA5
3D0D
BDAD
BDE8
BD6B
BD12
3BDB
BB7D
3D99
3E0D
3DF0
3D11
3CC8
BC07
BC86
3C4B
3D8F
3DA9
3C32
3B8F
3C5D
3C64
3D06
3D64
BC22
BC5D
BB33
BDBB
BB98
BD22
BD47
BDC0
BCA3
BCDC
BC2D
BB0D
3D25
3E30
3E1B
3DBE
3DCE
3E01
3D6F
3DC9
3DB1
3D7E
3CD5
3D0B
3D42
3D09
3D22
3D06
BD55
BCB0
BD0B
BD8B
BD1D
3C56
BC0D
BE00
BC97
3BFC
BC26
3C36
3C14
3CD0
3DA4
3D85
3E1C
3E60
3E46
3E41
3E39
3E30
3E4E
3E54
3DC1
3E1E
3E1A
3DA3
3DBA
3DEF
3CB6
3C01
3DA6
3D88
3E03
BD48
3B6B
BCEB
BAF0
BCEF
BC6E
BC00
BDD5
BCB6
BBAE
3CD9
3DFE
3DB0
3DD6
3E1F
3DA0
3E00
3D8B
3DC7
3DD0
3DF5
3DC1
3DB9
3D34
3D04
3D23
3C87
BC93
3D33
BCEB
BC18
BC9B
BBAF
3CDA
3D06
3D51
3CCD
3B96
3D92
3D34
3D55
3D35
3CD6
3C8E
3DBD
3D87
3D01
3D11
3DA7
3D82
BC03
BD0E
BD5D
BC54
3D1F
BD0B
3D0F
BC3A
BD11
BD08
3C04
3CDB
BC16
BC11
3C5E
3C8A
3CDB
3C7A
BD02
3BD4
3C29
BCE3
3C2D
3D9B
3D29
BCCD
BCC1
3C9E
BB4B
3CA8
3B82
BC8D
3A0A
BCF9
3D0C
3C85
BBE0
3BC0
3BAE
3C96
BCAF
BC51
BBD4
3BD4
BA63
BD05
BD2B
BCE2
3D5F
3CF6
3D05
3D58
3D5A
3DF4
3D5F
BDC0
BDA8
BCE7
BDB2
BD40
BCD1
BCE0
3AC8
BCE0
BB4B
BC1C
BCDC
BCD9
3C80
3C6A
3D1D
BD9C
BD64
BD6B
BD41
BD91
BD8B
BD6F
BDCD
BDC6
BE03
BE27
BE26
BDAE
BDB9
BDB8
BD5C
BD5D
BD0E
3D17
3CD6
BD06
3CA8
3C19
BC34
BD82
3C64
BC88
BCC1
BDC3
BD4C
BC95
BCDC
BD4D
BCA9
BD5E
BC72
BD0D
BD2F
BCA7
BD6A
BDA8
BDBA
BDF3
3CAE
BBC5
3D5C
3D8B
3D4C
3D75
BD00
3C7D
BD00
BD03
BDA9
BDB6
BE15
BDA4
BD3B
BD87
BD9E
BD90
BD10
BD28
BCE3
3D32
3CFE
3D37
3D23
3CC5
3D4E
3D22
3D86
3D99
3DD3
3E0A
3E13
3E10
3DB2
3C47
BCBE
BDD2
BD7B
BD8A
BE46
BDCE
BD8F
BCF6
BC94
BD26
BC14
BD01
3D29
3CF5
3D62
3D5B
3D8F
3DB0
3D7D
3D79
3E07
3D9D
3D16
3B34
3E4D
3DB9
3D1F
3CF3
BD30
3B18
BD66
BDF2
BDB2
BDAD
BDBB
BD61
BDBB
BDCF
BC11
BB35
3D5B
BC12
BCD4
BD73
BCB3
BCE4
3C07
BD36
3C8C
3DEE
3DE1
3C90
3D23
BD33
BCF0
BD00
BD8C
3D89
BD33
BD5D
BD97
BD09
BD68
BDA9
BDA2
3C4F
3D52
3CF0
3C9C
BCF5
BCEA
BCEA
3CC9
BBBF
BD02
BD06
3CE4
3D28
3D72
3DEE
3E32
BDA8
BD0E
3D9C
BCAB
3CAD
3D35
BD93
BE04
BD9B
BD76
BD47
3CBD
3CB2
3D08
3D8C
3D5F
3D0E
BD32
3CCE
3CD5
3D20
3D0F
BD12
3C93
BCA8
3DED
3E3C
3E2D
3DD9
3CB9
3C86
BCF8
3D72
3D38
BD97
BDF0
BD79
BD79
BD63
3AC8
3D45
3C9B
3DC7
3DE4
BD5D
BD9F
BABC
3D7A
3CC6
3D3B
3CEC
3C8C
BD41
3DD3
3E43
3E02
3C10
BDB3
BC86
BB75
3D83
3D5D
BC6D
3B06
BCDF
3A72
BA8C
3C1F
BC93
3D5D
3DC6
3D2A
3AA3
BE02
BDB1
BA45
3D0A
3C00
BC82
BB67
3CEC
3DE0
3E29
BB53
3C39
BD76
BD71
3D97
BC97
3C72
BD80
3CAA
3D70
BC8D
BD36
BC35
BD40
3D37
3D4A
3C9A
BD85
BE00
BE19
BD87
BD5E
BB10
B9CE
3D27
3C4C
3DC6
3E12
3D4F
3DB4
BDAB
3CD4
BC65
BC83
3D7D
BC27
3CB1
3D4A
3BF7
BD8B
BCB0
BD68
BC6D
3D27
3D3D
BDA7
BE2F
BE0A
BDB1
BD53
BCDF
3D29
3D2A
3D82
3DAB
3E21
3D82
BD83
BD86
3BE7
3D0C
BD50
3D19
BCD9
3D24
BBAE
3D28
3CF9
3D88
3C57
3DAC
3E17
B925
BDC2
BDC8
BE33
BE0F
BD7A
39B0
3B11
3D01
3DB1
3D8D
3DBB
3DC6
3E1B
3DE5
3CBC
BD17
BDAB
BCB5
BC94
3CF0
3D72
3D77
3D99
3D54
3DDB
3E49
3DDD
3D66
BDF8
BE05
BDFD
BD8C
BD7E
BD93
BCCA
3C47
3D41
3DBF
3E00
3E22
3E05
3DB2
BC9D
BD48
3CB8
3A76
3D27
3D9E
3B62
3D91
3DBE
3E15
3E0F
3E34
3E12
BB4A
BD37
BDB1
BD7F
BDA9
BBC2
BD4E
BD1F
BCF2
3B5C
3DBF
3E2D
3E08
3DA6
3D7B
BB16
BC96
BDA5
3C8D
BC81
3D49
3D8D
3D0D
3DC3
3DE7
3E2C
3E28
3DD6
3C7B
BCD0
3D03
BD01
BA8E
BD0E
BD6B
3C58
3CED
3C99
3D94
3D9A
3E14
3DEE
3E0B
3CC7
BD68
3D09
3C45
3B8D
3C80
3D47
3CC0
3D72
3E33
3E1D
3DE6
3DA6
BD21
BD16
3A76
BC8C
BCB4
BC23
BD6B
BC17
BA0F
3D37
BBF7
3C6B
3D83
3CFD
3DE8
BE07
BDA1
BCA2
BD06
3D69
3D55
3DA5
3D41
3D76
3E11
3DD5
3D91
3C3A
BCBE
BD31
3CC9
BC6B
BCD1
BD67
BD74
BCFA
BD14
3B72
3D8C
3D8A
3D44
BD93
3BAD
BD30
BD40
3D19
BD19
3D17
3D84
3DD1
3DBB
3D9D
3D48
3D9B
3D3A
3D20
BD12
3C5E
BC30
3C0B
BBB4
BBF2
BD47
3CE6
3D4A
3DDC
3D07
3CA2
3D06
3D61
3D60
BCC4
3CEB
3DBD
3D2A
3DC5
3DAF
3D63
3DE5
3DAB
3D65
3DC1
3DEE
3DC6
BCA8
BD6E
3D0A
BD7C
BD0C
BC54
3C5D
3D89
3D67
3DBA
BC8B
BD27
BD4F
3D2A
BD3E
BCAA
3C49
3DDB
3D48
3D12
B9D5
3D54
3D9E
3CFB
3DD3
3DA6
3D8F
3C90
BCA8
BC9F
3CB3
BBD2
BCB3
BCB1
BD1C
3C8D
3D33
3D51
3D4D
BD2D
3D1C
3E2D
3D0C
BBC5
BD25
3D83
3D90
BC9E
3B26
3D3A
3D0F
3D9D
3DDB
3D3B
3D8C
3D49
3D9C
BBE3
3C3D
3CB0
BBA6
3CF2
3CD4
BD07
BA85
3D47
3D5A
BA0C
3CA5
3CB5
3D5A
BCA0
3C44
3C90
BC4C
BD61
BD8C
BD7E
3CD9
3DA4
3D86
3DDB
3DFE
3DE0
3E01
3D8B
3D94
3D80
3C9C
BC9A
BB10
BDB6
BD45
3CCD
3D53
BC6E
3D31
BD20
BC26
BC84
BC33
BCB5
BE05
BE17
BE28
BE2D
BE24
BCDA
BC7F
BABD
3D90
3D9D
3DB6
3D70
3D79
3C03
BCEE
3BC4
BC7D
BDC5
BE12
BC9D
3C8A
3D96
3D11
BC2C
BBB6
BBFE
BCAE
BB84
BCD3
BDB6
BE61
BE24
BE64
BE6D
BE81
BE3F
BDF0
BE19
BD9C
BD7B
3912
BDA0
BDF0
BE06
BDB4
BDD3
BDD2
BD93
3C2F
3CBF
3C55
3B12
BCA3
BCE3
3C6F
3CB3
BB9A
BC80
BD82
BE1A
BE37
BE0C
BE5C
BE56
BDB2
BD7D
BE08
BE64
BE57
BE52
BDE7
BD1D
BD91
BD96
BDF5
BDDA
BC3D
BD51
3C25
3C8F
BC00
BCF9
BBED
BC20
3B4F
BC81
BD16
BCFB
BD1D
BDB0
BD80
BDD7
BD1B
BCF5
BDDF
BE0D
BDE7
BDE3
BD96
BDC0
BDBF
3BBE
BDFE
BDD1
BD22
BC84
3C14
BD0A
3CE6
3AE8
3D0C
3C97
3AA1
BB6A
3C8B
3C85
BCE4
BC13
BCCA
BCC8
3BCF
BCEE
BBDB
3D43
3D15
BCA3
BC94
3CE6
BCEE
3B3E
3BB2
BCA6
BCC7
3A72
BCB8
3C9B
BD0D
3CCB
3D10
BC6E
BC93
BD0A
BC53
BD63
BBFE
BCBA
BCCB
BD30
BC4D
BD62
BD7B
BCAB
BDED
3D31
BCC5
BD3F
3BDF
BC0F
BD17
BD2C
BD31
3CCA
BAF4
BCCC
3C00
BCC8
BCE9
3C0E
BD07
BDB8
BC72
BCE6
3C06
3CEE
3D04
3CE3
BBC0
BDB6
BE01
BDFD
BD8F
BC1B
BD36
BC6A
BCD3
BD9B
BD73
BD9D
BD48
3BE4
3D82
BC26
BC93
3D05
BA8B
3CA8
3DCE
BC68
3BC6
3D56
3CFE
3DA6
3DCA
3DBF
3D09
3D96
3BC3
BD98
BCD7
BD98
BD92
BD93
BDC7
BD11
3D29
3D84
3D6C
3D5A
3D4A
BD6F
3CE2
BCC4
BCF2
3C4E
BD83
BDD7
BC33
3D82
3CA4
3C2B
3DD0
3E01
3DE8
3DA6
3D0C
3D2E
3CE5
3C25
3D41
3D33
3CE9
3C89
3D72
3D40
3D06
3DB9
3DFE
3C42
BCD8
BD0B
3B6C
3CF7
BC61
BCC9
BAEE
BD01
BC88
3D1C
3D9D
3DD6
3DDF
3DD6
3DCC
3D25
3B80
3CE2
3D1A
3CF2
3B2F
3D11
3D9A
3DAF
3C8F
3D45
3E22
3CE5
BCC3
BD08
3DD0
3D1E
BC9F
BC63
3D91
3D80
3C16
3DB0
3DF0
3DCA
3D83
3D54
BBF2
3C5D
3D8A
3D01
3CC8
3C46
3D23
3D0B
3D3D
3D98
3CD3
3DC5
3DD7
3D71
BCFA
3C6E
3DE3
3D31
3C42
3C9F
3C7C
3CED
3D4B
3E02
3D3E
3DAF
3D30
3CC4
3D07
3CD5
3C47
3C23
3CAA
3D88
3CBC
BB71
3BBB
3CEE
3DA1
3DB3
3E12
3D46
BCDC
3CCC
3D26
3D0F
3D24
BB56
3CD4
3DC5
3DB9
3DB2
3D53
3D8C
3D91
3E00
3DDB
3DB6
BB93
3C54
3C01
BB62
BC61
BA89
BD19
3CCE
3DFA
3DD2
3D99
3DDA
3DC5
3D41
3D42
3DA8
3DAE
3E13
3E0E
3D86
3D82
3DB2
3E0B
3DA5
3D90
3DE7
3DDF
3D0A
BD63
BDB2
BD84
BDA8
BD1F
BDB3
BD73
3BEB
3DBA
3D14
3DC5
3D98
BD76
3C97
3C93
3DEC
3DC4
3E22
3DD2
3D9E
3D99
3D90
3CEF
3D1F
3D4E
3D15
3D05
BDD1
BE3B
BDE3
BDF2
BE00
BD8A
BDD1
BD4C
BCF3
BCD3
BCFC
3D97
3D8B
BD46
3BDA
3D8A
3D9E
3C5F
3E01
3E00
3D84
3CCB
3C44
BD2A
BDA2
BC15
BD99
BE05
BDF7
BE0E
BDFE
BDA3
BDA8
BD62
BD5B
BDA8
BD3E
BDF0
BDB6
3B70
3CBD
BD35
3C68
3D7C
3D2C
BD79
3D34
3C73
BD7A
BDB3
BDC6
BE01
BDBF
BE1E
BE0F
BDB4
BD4F
BD79
BD31
BBCF
BD4C
BCF1
BD39
BD66
BDE9
BE27
BDB3
BB83
3D2E
BB9B
BD47
3D37
3D45
BB44
BE1E
BE2C
BE3D
BE4A
BE32
BE1E
BE2B
BDFF
BDA4
3C87
3C2C
3B91
BD02
3C37
3BA5
BD63
BBDE
BD8C
BDC0
BE44
BDF1
BCE0
3D81
3C1A
3D9B
BD5E
3D9A
BDA7
BE82
BEB1
BE9D
BE7E
BE61
BE48
BE36
BDEF
BD2F
3D75
3D38
3D2F
BD2F
BD38
3CDA
BB9A
BD29
BD8D
BDD0
BDE5
BE17
BCD7
3DB9
3DAE
3D85
BD32
BE07
BD72
BE5B
BE9B
BE8F
BE8A
BE58
BDC0
BE07
BDC3
BB61
3DAA
3D78
3D4C
3C48
BDAF
BD05
BD8C
BD50
BDDD
BDCB
BD9B
BC0E
3CD3
3E1E
3CE1
3B94
BDDC
BE00
3C9E
BE5D
BE87
BE7C
BE3B
BE1D
BD21
BD82
BD5F
3CD3
3D86
3D63
3D20
3D0B
BC6F
BD2B
BC13
BBA7
BB68
BD3C
BD29
BB13
3E0F
3E21
3DDD
BD11
BDA8
BDBD
3CE5
BD4D
BE00
BDC2
BD8A
BC4D
BAFD
BD40
BD85
3D4A
3D80
3BB0
3D68
3D6F
3DB7
3D61
3B7E
3CC8
3BD7
3B67
BDDA
BD14
3E04
3DB7
3E07
BC82
BD28
BDAC
3D3B
3D19
3BEC
3CF2
3CAB
3D95
3D24
3BD4
BB41
BBC4
3D89
3AC2
3D97
3D86
3DD9
3D97
3D30
BC6F
BD03
BC95
3C0F
3D18
3DCE
3DF3
3DC5
BD26
3B5B
3C4C
3D32
3DC8
3DB1
3D7A
3D9C
3DF9
3D96
3D61
3BC2
BD04
3D2C
3D91
3D88
3DFD
3DB5
3D8E
3D41
3C85
BC4A
BC55
BA7B
3CBF
3DBB
3DA2
3DAB
BC9C
BD8A
3E0B
3DC6
3E15
3E25
3E0D
3DEE
3DC4
3DB1
3DA4
3D17
3D33
3D59
3CA3
3DC3
3D0C
3D29
3C8E
3CBD
BD17
BD0D
BD38
3D00
3D08
3DA7
3ABF
BCEB
BD7B
BBA1
3D83
3D63
3DE8
3D02
3D93
3D54
3DA7
3D9C
3C92
3BED
3D45
3D62
3D70
3A20
BC0C
BB52
BC50
3C21
3C84
3CE2
3D4F
3D8F
3D1C
3DA3
3DBC
3CDE
BD2F
BD84
3DDE
3D4E
3D94
3C9C
3D7E
3DBB
3D6A
3D0A
3D48
3DA3
BBBB
3BCB
3D08
BCBF
BBAC
BC2F
3C64
BD2F
3D22
3D39
3D18
3DF5
3D90
3D16
BDBE
BC00
BA88
3CBE
3CE5
3D15
3D5E
3BB3
BC21
3C0B
3D0A
3D87
3D85
3D6D
BB41
3C16
BC71
3D50
3C3C
3C97
3B76
BA53
3D44
3D48
3DB2
3DD4
3DFC
3DAC
BD51
BCDD
BC02
3CA6
3C93
BD84
BDC2
BE28
BD92
BD6E
3B72
3B6C
BCB5
3DC0
3D87
3D4C
3D14
3DD1
3DD0
3D40
3DE8
3E19
3DC7
3D03
3D39
BBD1
3DA9
3D30
3B5A
3CD8
3C8A
3C93
BD65
BC9A
BDCF
BE19
BD34
BD05
BD39
3D22
3D56
3D6F
3DE3
3D31
3DCD
3E33
3E10
3E0E
3D91
3DBC
3D62
3CE0
3C07
3B9A
3DC5
BBDC
3D33
3CDB
BCC4
BCA3
BCBC
3C4E
BDED
BDF0
BE19
BDE8
BCC9
BCE9
BCDE
3C44
3C35
3D3E
3982
3DB4
3C09
BCC3
BD51
BCA6
3B5E
BD50
BDAC
3C3D
BC98
3D4B
3B3A
3CDB
3D04
BCB5
BCD8
BC5C
3CF9
3D88
3DD5
3E06
3E21
3E37
3D44
3D77
3DF7
3DCD
3E1F
3E23
3D6A
3E05
3D28
3D28
3CE8
3CC7
BA97
BCF8
BD0A
3BB4
BB9E
BD0B
3C1C
3B00
3CA5
BBAC
3CEC
BD04
3D11
BCE3
BC8E
3D0E
3C45
BC9E
BD10
3C89
3D4F
3D2C
BC9C
BC6D
BC82
3CE5
BBC9
BBC2
3CD9
BCCA
3D0B
BC1E
3D0F
3CF4
3CDD
BC7C
3CD1
3CA6
3CA0
BC40
3C91
3C50
BC9C
BD07
BD6A
3DA5
3D67
3D49
3D17
3B06
3E14
3D78
BD89
BDAC
BD24
3AF8
3C20
3CC3
BC0C
BC8C
3CA5
3B97
3CFF
BBAB
BCDD
3CF7
3D13
3D31
BBE4
BD20
3CA5
3D6C
3DCA
3DDE
3DE1
BC18
3D22
BD49
BD50
BD11
BD97
BD32
3D03
3D70
3D8A
3DBE
3DEC
3DE0
3CA8
3CD4
3CC3
BCF0
BD42
BC96
BCD5
BC50
BBE0
3D71
3DB4
3D86
3DBB
3E25
3DAE
3DA1
3DC6
3D0F
BBF8
3C4D
BDA5
3B1D
3CA6
BD33
BDC3
BDF9
BA3F
BD23
BD36
3C9F
BCEC
3BA5
BD7E
BE00
3CE5
3D42
3E1C
3DA5
3DD5
3E22
3DF1
3DA3
3D2A
3D6C
BB9E
3D22
3D7F
3DAC
3D25
3CBE
BCE6
BD8B
3C57
BD03
BD5B
BD81
BDAB
3D78
BCD9
BCE5
3D57
3AA1
3D81
3D18
3D48
3CB7
3D94
3CA1
3D3A
3C1D
3D3A
3C5F
B997
3D68
3D58
3D7E
3DE1
3D66
3CFB
3C1E
BD20
3C90
BD11
BDDD
3CA2
3CFD
3CC9
3D2B
3D11
3D84
3D72
3DD1
3D98
3D08
BD1E
BCB8
3B9D
BC95
3D32
3DA6
3D59
3CC3
3CCB
BC2B
3CDC
3B46
BB82
BBFB
3D22
BD1B
BE03
BDC5
BD93
BBED
3B8B
3D9A
3D25
3D88
3E05
3D95
3CE4
BC92
BDA1
BD9F
BD76
3CF4
3C4A
3CF8
3DB9
3C88
BC5B
3D61
3C7B
3C46
BAC8
3C42
BC43
BD26
BE01
BDF3
BDB0
3CD9
3DA7
3CE9
3D3E
3D8B
3E0B
3CE9
BC59
BDC9
BD72
BD88
BD1B
BD57
BC9F
3CE8
3E06
3E14
3E13
3DC5
3C8B
3D55
3C1F
BD3E
BCE7
BC80
BE0B
BDEC
BDF7
BDE1
BC10
3D23
3CC5
3D69
3B4E
BC92
BDDF
BE13
BE0C
BE0C
BDCE
BE0A
BD1E
3CFC
3DB7
3D88
3DD7
3DEB
3DA3
3D93
3D53
BD50
BCF3
BCE4
BDD7
BDE2
BE52
BDA8
3CEF
3C83
3D03
BC17
BDD5
BDC3
BE0E
BE28
BE15
BE37
BE2E
BDC0
BD1D
3CA7
BD74
BD37
3CA8
3DFF
3D86
3D39
3D50
3C4F
3BE3
BC3A
BD4F
BE0E
BDC1
BBCA
3C1D
3D85
BDA8
B88C
BE02
BE06
BE01
BE2A
BE25
BE36
BDE9
B99F
BB81
BD0C
BE20
BE40
BD2E
BC01
3D35
3D88
BCF3
3BE0
BBEA
BD79
BD79
BDE9
BD8E
BD41
BCDC
3D77
BC7B
BD9C
BE35
BE20
BE03
BE17
BDE7
BC6E
3C94
3CEB
3D7B
BC8A
BE3C
BE5E
BE3A
BD4B
BBB9
BD9A
BD94
BD83
BBD7
BD75
3CE7
BD61
BDEE
3D44
BC9B
3D34
BC7E
BC55
BE0A
BD79
BD13
BD1E
BC9F
3D12
3D96
3D8B
3D2D
BD84
BE0C
BE84
BE3C
BDA4
BDDA
BDDA
BE2B
BDC1
BCB0
BC47
3D9D
3CC4
3C1D
3D1E
3D54
BCA7
3CA1
BD85
BD61
3C69
3CDC
3D6A
3CDA
3D43
3D83
3D14
3C51
BD0F
BE21
BE7E
BE3B
BE04
BDD5
BE06
BD56
BD1E
3CAB
3D8A
3DB8
3DAB
3DD9
3D8A
3DB7
BB86
3D91
BBC7
3BAD
3DE0
3CBC
3D78
3A6C
3D7E
3D70
3D86
BD2A
BDA3
BE31
BE29
BE11
BD42
BD62
BC13
3CAE
3D49
3D71
3DDC
3E01
3DD2
3E5B
3D5E
3D06
BD37
3D45
3CEC
3DA4
3DB0
3D4E
3D83
BAE9
3D87
3DBF
3DC6
3C04
BD4C
BDF4
BDB6
3CA7
3DB1
3D15
3DB4
3D92
3E18
3D7E
3D15
3DE9
3DC7
3E30
3DD8
3C2A
BD94
3E10
3D0B
3D84
3DA0
BB19
3D71
3D95
3DAB
3D64
3D4E
3C3C
BCEF
BD71
3B94
3D79
3DC6
3E19
3E05
3D9B
3DBB
3DAA
BBC3
BC1C
3DFD
3DC5
3DF5
BDBB
3CA6
3D5F
3D00
3D65
3CA6
BC96
3D7C
3D44
3DB5
3DB4
BC80
3C60
BCB8
3C2D
3D42
3DF6
3DDC
3DC4
3DB7
BA54
3D39
3D77
3D04
BD10
3D0F
BC0D
3DC7
BCEF
3CFA
3C83
3D84
3D02
3D37
BB8B
3D3E
3D80
3DBB
3D57
3DCD
3DDA
3DAA
3D9A
3D81
3D77
3E02
3D90
3D83
3C29
3D84
3D7D
BCCA
BD32
3CC3
3DD4
3D78
BA7E
3D92
3D52
3E20
3DAD
3D7B
BCC1
3CD3
3DC0
3D67
3DE1
3E2B
3E23
3DE5
3DDE
3DD4
3DD3
3CEE
3D8B
3D8A
3D15
3D02
BB2E
BD6A
BD9A
3B58
3DAB
3D0B
BD61
3DBF
3E09
3E20
3C16
BC43
BC89
BD14
3D80
3C3C
3CE8
3DC9
3DDE
3DCE
3D87
3D88
3D99
3D12
3DB9
3DEE
3D74
3D9B
3DD7
3D5E
BCAA
3D1C
3DAA
BC2E
BD60
3CAD
3DF9
3D7A
BD14
3CEA
3C86
BC86
3CB3
3D85
3D71
3D89
3C88
3DA0
3C8C
3DC6
3DAB
3DC1
3D9C
3DAD
3DA6
3D7A
3D34
BC0B
BC2D
3CA5
BD8D
3D0F
BCA7
BCE2
3E06
3D3B
3C3C
3D84
3D9E
3D36
3DBD
3D8F
3DAD
3D99
3D64
BBF4
BB60
3D3F
3D2B
3D49
3D2E
3BE4
BCF5
BC86
BCAF
BD10
BC09
3D35
BD5B
3D0D
BCAE
3B00
BCC6
BD54
3D86
3C64
BC01
BCF4
BD81
BCF2
BDCE
BDA6
BDA1
BC62
3CA4
3D02
BB9B
3BE9
BA60
BDD5
BDA1
BD06
BCD9
BD4F
3D9A
3D8E
3CAA
BBC5
BC5B
3CA4
3BAF
BD10
3DB0
3CAD
BD9F
BD9C
BE06
BE21
BDCE
BDEE
BE11
BDF7
BE03
BE08
BE22
BE29
BE21
BDC4
BE0A
BE2F
BDE1
BDD8
3C39
3B2D
3C23
3CCE
BCB6
3C56
BC77
3CC1
3D95
BD1C
BD00
BD03
3A70
3CE3
3D5E
BD43
BD01
BD03
BD17
3D94
BC2C
39C6
BD5F
BCC1
BE0B
BD6B
BC80
3D38
3B6F
3D12
3C6B
3CA3
3CF6
BC87
3C8E
3C20
3D1D
3CF3
3C2F
BD42
BCF9
3C54
BD24
3D9F
3CD4
3BA1
BC55
3B6A
BCA1
3BEF
3CBB
BC2B
3C03
BBF5
BCD5
3C76
3B09
3C80
3D09
3981
BC7C
BCA4
3CA7
BBCE
3B23
3CE3
BCD2
3C5F
3C05
BC8C
BB96
BCBC
3CB8
BCF3
3C09
BC90
BCD2
BD0E
3C09
BC95
BA7E
BB84
BB95
BCC2
B9DF
3CE7
BCFB
3CA1
BD09
BC99
3CD0
BC97
3C04
BA9A
BD26
BC17
BBC2
BC6C
BBE2
BCF0
BCEC
BD8E
3A13
3C8F
BD7E
BCA4
BD1C
3C25
3BD5
BCEF
BBD0
BCCA
3C63
3C35
BC81
3BF6
3BA7
BC68
BD00
3CE3
BD8E
BCBA
BA1A
BD9C
BD67
BDF8
BDBF
BDD7
BE19
BE3C
BDFE
3D26
3C66
BC99
BCA6
3C8D
BBE1
BD24
BCC5
BD17
BCCE
3C73
3CD5
3C48
3C9D
BC34
3CAB
3B56
3B11
3D72
3C7C
3C24
BD4D
BDF6
BDDF
BE07
BDF2
BE02
BD05
BD31
3B96
BD79
BD34
BD5A
BC5E
BD21
BD54
BD4B
BD71
3C19
BCD3
3C55
BB2A
3D1D
3C17
3DCB
3D9A
3CA5
3DA5
3DDE
39FB
BDD9
BC87
BC00
3C96
3C23
3C02
3D8B
3C78
3D1C
3CFC
3D8E
3C93
3DC1
3D42
BD9E
BD48
BD0E
BD93
BCFE
BD01
3CC4
3DD3
3C9E
3D9C
3E20
3DC7
3CC7
BD74
3C3E
3C32
3D53
BAEC
BB67
3CCE
3BC5
3CD8
3BD4
BD40
BD26
3BFF
3D37
3D84
3B22
BC81
3D38
3BB2
BD19
3C69
3DB0
BC38
BC65
3D70
3DB9
3D8C
3CCA
3D59
3D5B
3D53
3D73
BB8C
3C93
BC68
BCE1
3A60
3BED
BCFD
BC9D
3B2B
3C7C
3C91
BCB7
3CD5
3D1B
3D90
3C49
BC47
3CE8
3C14
BCD8
3DA4
3E04
3DA0
3D54
3D93
3D98
3C37
3CDD
BBEC
BD4B
BDBF
BD27
BD70
BD0E
BD57
3CAD
BC2B
BCC0
BC97
BD22
BC95
3DA6
3DCB
BB27
BC1F
BDCF
3C2D
3CC7
3D31
3D8B
3C99
3CD1
3D11
3D70
3D12
3CAE
BCE8
BD90
BDA3
BD73
BCE6
BCA7
BBD6
BBFC
3C2E
BD51
BA9E
BD67
3D5D
3E3B
3D9B
BCE6
BD29
BD94
3BED
BCA6
BB88
BC14
3D81
3D7F
3DB3
3D3F
BAB9
BC05
BD7A
BDB7
BD35
BD00
BD1E
3BBA
BBF8
BBF1
3C14
BCE5
3C94
3CF2
3E0B
3E2A
3D74
3D32
BD32
BC5B
BC34
3D36
BB35
BD55
BD22
3D65
3C44
3CA1
BC77
BD5F
3CCD
BD8D
BD27
BC9D
BC34
3BD0
3B86
3CAA
BD5B
BCAD
3AEA
3CEE
3E19
3E35
3E15
3D15
BD7D
BD9A
BD82
BBF0
BD07
BD5E
BC4B
3CA6
3D04
3D80
3CA0
3DDA
3DB7
3D14
3CAE
3CC3
3D77
3D13
3D2B
BC90
3C8F
BCD4
BCE1
BC62
BC65
3DF4
3E09
3C42
3C0E
BD9A
BDDB
BE0F
BE18
BD8D
3DAE
3D78
3DCE
3DBA
3E44
3E33
3E53
3DB2
3D45
3D75
3D0E
3C3F
3D05
3C95
3DBD
3DA0
3D56
BC64
BDE9
3BED
3CCD
BD43
3D53
BD85
BD95
BE25
BDE3
BCA0
3C98
3DD8
3DE6
3E21
3E47
3E58
3E4D
3E04
3E0A
3DB1
3D81
3C20
BC09
BC09
3D6B
3E1A
3DAD
3D85
BD89
BD4F
BD54
BD6D
3C0F
3D2C
BDF0
BDF6
BDCC
BD93
BDC2
BBB9
3D87
3E02
3E0E
3E1A
3E4B
3E0C
3E51
3E23
3DFD
3B96
BC04
BBD9
3CC3
3D97
3DAB
3DBA
3C3C
BDCD
BE14
BD87
3CAA
3CBD
3D69
BDAF
BE29
BE88
BE5E
BE57
BDB8
BD74
3C1D
3D31
3E14
3E0C
3E3E
3E19
3D83
BBB5
BCD1
BD74
BDD9
3C7F
3E0E
3E09
3D23
BDC0
BD4C
BD76
BD1C
3D98
BB85
BDE9
BE5A
BE90
BEA2
BEA0
BEBA
BE9E
BE7F
BDFF
BCCF
3D49
3DBF
3D58
BD46
BD79
BCA8
BE0C
BE0E
BD01
3D41
3D89
3D3D
BDF0
BE22
B9EF
BCF1
3DD7
3938
BD73
BE44
BE98
BE8E
BEA1
BED1
BECF
BEBD
BEAD
BE7B
BE0E
BD1D
3C9E
BD10
BD98
BD49
BE14
BDDA
BD0B
3D59
3D82
BC6B
BE19
BD82
BCA1
BD2D
3CEF
BC9E
37DA
BDB9
BE43
BE16
BE98
BE9A
BEA7
BE94
BE8D
BE85
BE3C
BE04
BCC1
3B58
BD70
BDB7
BD8E
BCAA
3D2C
3BDC
3C89
BCC2
BDE6
BD15
3DA6
3D23
BD6F
BCEC
3DD1
3BF0
BD89
BD8F
BDEC
BDB8
BDBA
BDDE
BDD6
BE42
BE29
BD8A
BBE7
3CFB
BD00
3C71
3CBA
3C99
3CB9
BC53
3BC4
BD6B
BCBC
BD59
3D70
3CF8
3D1D
3AE9
3E05
3D4E
3D48
3D0F
3CE2
3DA5
3D84
3DC1
3D1B
BD1B
BD4B
BCED
3CD3
3C49
3DB4
3D49
3BEB
BD28
3BBC
3D32
3BD7
BDD2
BDCB
BD62
3D27
3D9D
3DBE
3CEB
3D92
3E19
3E23
3DE3
3E29
3E27
3DC2
3DCB
3D89
3D45
BC29
BC9D
3D08
3C8A
3C20
3BE3
BD5D
BCD6
3D43
BC80
BDC9
BD81
BDE8
BD94
BCF0
3D90
3D20
BBF0
3DDC
3E45
3E3D
3E07
3E11
3DC7
3DB6
3DD5
3D8B
3D28
BCCE
BC95
3CAA
3B3E
BB82
3CB8
3D37
3CAD
BD37
BD9B
BE0C
BDF6
BDDC
3D98
3C28
BC0D
3B98
3E13
3E44
3E82
3E5C
3E18
3D3C
3D27
3DCB
3D5C
3D54
3C92
3CD2
3CD5
3D31
3CEC
3CBA
BC13
BC03
BD88
BDD8
BE36
BE14
BE13
BE0B
3D8A
BCB9
3CF8
3D00
3D65
3E26
3E21
3E00
3DB6
3DCC
3CDE
3DF0
3E0F
3D60
BCE8
3D0F
BCFB
BD6F
BD96
BD84
BC46
BDA7
BDB7
BD56
BD13
BCA2
BD9E
BCFF
3D2F
BC20
BCAC
3CC3
3DB4
BD68
3D15
BCA2
3D7B
3D57
3DD4
3DD4
3D3B
BCCE
3C94
3DBA
3CAA
BDA8
BDFD
BDE7
BD83
BD9C
BC94
3D56
3DB5
3DC1
BC05
3CDD
3AC6
3D0F
3CE5
BCB7
BC63
3C68
BC08
BD5A
BDC8
BE0B
BE10
BDC7
BD74
BDD6
BDE4
BE4A
BE74
BE0B
BE08
BE36
BDD1
BDFE
BDEA
BCF1
BD45
BC90
3C85
BCE5
3C59
3C4D
3CF6
BCB5
3D02
BC55
BD88
BC9A
BD1A
BCD7
BD4D
BD38
BE34
BE0E
BDBF
BE44
BE3F
3C97
BD5A
BDB5
BD9C
BDBA
BE04
BDC5
BD15
BCDC
BC2C
BC97
BC91
3B27
3C4A
BCE5
BCF5
BCE4
BABB
3C8E
BA68
BCA4
BC3A
BD0D
3BA8
3C48
3D08
3D12
BD6D
BDA3
3C8D
3AE9
3CB8
3C9B
BB76
3CE8
BCBC
BBAB
3A5C
BC84
3D0A
BD0D
3BF3
BB39
3BD4
BC85
BB14
BC20
BD60
BD17
3D31
3CCA
3DA3
3D8D
3CCB
3D19
BCBD
BD59
BDD0
3B6E
3DB3
3D7D
3D2F
3CC8
BCC1
BD95
3C67
3CAE
3CD8
BC69
BCF6
BCA9
BCA6
BD12
3CCF
3B18
3D82
3D83
3DC3
3CEE
BBF7
3D37
3CE5
3C3D
3D42
BD6D
BD35
BBEA
3CC6
3D84
3DA9
3DE2
3E31
3D68
BD88
BD57
BC9A
BC76
3C34
3C4E
BD57
BD6A
3D4E
BC45
3D39
3C5F
BDAE
BDAC
BDCD
BD44
BDCC
BDA4
BCAC
BD1F
BDA1
BD4D
3C8A
BB9C
BC12
3DD7
3E19
3E27
3D84
BD69
3D88
3C3A
3C48
BD27
BDEB
BD46
BCEA
BD18
BDE1
BD82
BDE2
BD67
BDE8
BCD4
3C16
3D55
3C80
BB1D
3C9D
3D46
BCA1
BC6E
3D14
3DCF
3DA7
3DE6
3E0E
3DA6
3DDF
3D9D
BCD3
BB9F
BD94
BD5E
BDDF
BE07
BDF0
BE03
BD70
BD34
BCD5
3DB5
3DE6
3D9F
3D5C
3CD2
BC0A
3D07
3C9E
3D03
3D9F
3C89
BB25
BCDB
3CE7
3DB6
3DBA
3DE3
3C71
BD40
BCC4
BE0D
BDD4
BDDB
BDF9
BD59
BD46
BCB1
BD0B
3D0D
3D62
3D0D
3D12
3CBA
3D70
3CDF
3D08
3D8F
3D0D
B91E
3D01
3D95
3CB2
3DBE
BD5B
3B9B
3D03
BDE9
BD45
BDB3
BE13
BD5B
BD95
BDB3
BD15
BD19
3AF1
3C95
3CA2
3A9C
3C37
3C8A
3C90
3C8F
3D45
BC8B
3C27
3D5C
3C92
3DA1
3E2B
3DD8
3D03
3D02
3D1E
BDB6
BDA9
BD9B
BDDE
BCEE
3A92
BC61
BD03
3BD6
3CDD
3CEA
BBBA
3B80
BC95
BD50
3CDA
BD14
B916
3C30
3BD3
3CB1
BD62
3D86
3E26
3DDB
3D57
3C8E
BCD3
BDF0
BDBD
BDB8
BDD8
BD64
BCEE
BD7E
3ADD
3BEA
3C8A
3B20
B9E6
BD80
BD62
BD74
BD9A
BD82
BD1C
BD04
BCD5
3C6C
BD3C
3D0A
3E13
3CCD
3CC9
BD93
BD5D
BD64
BDEE
BE08
BD78
BD4F
BC0E
3D02
3DA4
3DAF
3C34
BBB8
3CE0
BDC9
BD4C
BDD1
BDF4
BD64
BD03
BC9D
BD45
3C89
3C4F
3DCD
3DA7
BD84
BE05
BD3C
BD0B
BDB3
BE2A
BE1D
BDB8
BC4E
3B48
3DF4
3DAB
3DA6
3D74
3C8D
3D0C
BC74
3C15
3C17
BCB4
BC4A
BC0C
BD15
3CA2
3D1F
3D96
3E03
3DD7
BD87
3D02
BD36
BCCE
BDC6
BDEF
BD7B
BCC2
3C20
3D9A
3DEB
3D7D
3DD0
BB61
3D09
3CD8
3D2C
BCD6
3CA3
BC28
BBDF
BC11
BBB9
3C99
3DD0
3DC7
3E4D
3E50
BDF7
BDDC
BD99
BD91
BCED
BDB9
BD50
BD2F
3D56
3D34
3E00
3DC2
3DBC
3D12
3D59
3D8F
3D93
3D26
3D6F
3DC5
3B6B
3D53
3D88
3D9B
3DC3
3DDD
3E1F
3BD6
BDF7
BE1C
BDAD
BD1A
BD0F
BDD5
BD9E
3CAD
BB8A
3D4F
3DA9
3D2C
3D32
3DB8
3DC1
3DCA
3D5B
3C9F
3D92
3DA9
3D3E
3C43
3D2F
BAD9
3D31
3B7D
BDD3
BDF8
BD12
BE08
BC5B
BD8C
3BE0
BD92
BD9B
BD9E
BD8F
3CDF
3D4E
3DDE
3D9E
3E00
3DF8
3D24
3D2C
3C44
3CA4
3D64
3D74
3D3F
BBF6
BD62
BD87
BDB9
BDD1
BE4C
3C4F
BE00
BDA1
3C7C
BDB5
BD9A
BDE8
BE34
BDE8
3D1E
3DE0
3E14
3E09
3DB0
3E17
3DB7
BCD9
3C42
BC8F
3DE0
3D05
3CAB
BD89
BD8E
BE02
BDF9
BDAC
BDF4
BD81
BE06
BDE6
BCAE
BD42
BBF9
BE10
BE59
BE05
BC8F
3DD4
3DF4
3E05
3E28
3DBC
3D86
BD20
BC56
3D15
3DA9
3CB3
BC80
BD88
BD73
BDD2
BDD9
BD4D
BDC8
BDF4
BDDB
BDDA
BD9B
BCDD
BD84
BE2E
BE37
BDA9
3C66
3DD6
3DF6
3E0E
3E0D
3DC1
3DA0
3CB9
BA6F
3C7D
3CAC
3C0A
BD68
BCD8
BC2D
BDAC
BDE7
BD24
BD2E
BE08
BE08
BE26
BC42
BD2E
BDDD
BDD2
BDD3
BCC8
3CB6
3DB7
3D2C
3D89
3D2A
3C1B
3BE8
BD12
BD78
3C2A
BC16
BD56
BC6B
BCB3
BD61
BD69
BCA7
BD1A
BD97
BE27
BDDE
BDD4
BCFC
BA81
BD17
BDF8
BDAA
BC79
BC59
3B74
3D01
3B9F
3BDB
BD4E
BC8E
BD4C
BC8A
3B7C
BC5C
BD4C
BBE6
BCA8
BC81
BCD7
3C1E
3C50
3AE5
BD90
BD52
BD97
BD25
BD11
BDE7
BE08
BD2E
BD73
3C93
3B81
3C90
3D14
BCAE
3CE6
BC90
3CF5
3B95
BAC1
BD34
BD1E
BBA8
BD4A
BBFF
BC36
3CC3
3D11
BD75
BE0F
BDD6
3CD4
BD99
BD69
BD99
BD0D
BCA6
BDF1
BC8F
BCD3
3C12
3CD4
3C2E
3CA4
3D86
3D8B
3D37
BC26
3D08
BC34
BCF1
BCB3
BCA7
3D33
3C6E
3CC8
3D3B
BCCB
3CCE
BCE9
BCA2
BB64
BC78
BCF2
BD8C
BE04
BDCB
BDBB
3CA0
BD2B
BC3E
BD0A
3CEE
3CFD
3D32
3CDA
3D19
BCCA
3D0B
3A3B
3D1D
3DC9
3D94
3E1D
3D6A
3C5A
BD93
BCAC
3D08
3CAA
BC36
BDD2
BE1B
BE21
BE4F
BDD7
BD8C
BC26
BC18
3CEE
3CF0
BB9C
BCA8
3BD8
3D17
BCAD
3D84
3DD9
3DFA
BC25
3D68
3E09
BD67
BDB2
BD0C
BCFC
BC55
BB87
3DB9
BC78
BD72
BD2B
BD8D
BDDA
BE33
BDC8
BD41
BDBD
BDA9
BDB2
BCEE
3C7F
3CA4
3B96
3D59
3CD5
3DB7
BCA7
BCDA
3D31
BD38
3B83
BCF3
3C51
3CED
BCC9
BC96
3C9C
3E18
3D1A
3DA5
3CF5
BCBF
3BF6
BDA5
BD20
3C57
3C83
BBC3
BC2B
BCF9
BCF9
BD31
BD86
BC5E
BCB1
BCE6
3D1E
3D5F
BBF9
BCE5
3CA7
BC5F
3C4C
BCB0
BC64
BD57
BDF5
BD2D
BC96
BD2C
3C55
BD57
BC32
BC0E
BE05
BD41
3C24
BDA5
BDCE
3CF9
BC07
BC06
BCE1
BDD5
BD96
3D0C
3C02
BC80
3CE0
3C6B
BC95
3C6E
3CCA
3C98
3C40
3C8B
BC0C
3B45
BCD4
BCB5
BCA5
BCE3
3D06
3DCB
3D1A
3C9C
BD0E
BD01
3D11
3CD4
BC97
3BB4
BCEE
3B7F
3B24
BC7F
BCB9
3CEC
3C88
3C1C
3B35
3C6D
BD20
3CFF
3C9A
3C9C
BC02
BD5D
39A4
3B0E
3CCF
3C62
3D00
3E0E
3DB8
BDDD
BC1B
3B09
3BFD
BB8D
BC20
3CC3
BCDF
BC8E
3D10
39F3
BCA3
3C47
3D0B
3CAA
BC1A
BD39
BCB4
BCB6
BCB3
3CBC
3D53
3DAA
3DA1
BB10
BC3A
3CA7
BC21
BC45
BE02
BDB1
BD1C
BCA5
BC03
3C7F
3C09
3CE0
BD09
3CFA
3A3E
3D52
3D1E
BD93
BD1B
BCA1
3C23
3D8A
3DE6
3D93
3DA7
3E0A
3E1D
3E18
3D31
3D83
3D3C
3B35
BE09
BD91
BDC7
BDBA
BD64
BD41
BBB8
BDBD
3D0F
3BF1
BAAE
3DA4
BD3D
BDA5
BD2F
3D5E
3D60
3D69
3DB4
3D8C
3DE3
3E0D
3E0D
3DF9
3DDB
3DE6
3DB7
3D17
BD3B
BC92
BE1B
BE02
BE3A
BE55
BDC3
3AEB
BD28
3BE2
3CEB
3C4B
BD77
BDC1
BDBA
BD0D
BC52
BC46
BD20
3BB6
3DA5
3DAF
3E51
3E46
3E4C
3E00
3E1D
3DBF
3DD3
3C9E
3B97
BDA7
BE4C
BE3A
BAB6
BDC1
BCB6
BCD9
BCFD
BD3C
BD92
BDC3
BD89
BD13
BDB6
BDDB
BDD4
BCB9
3C60
3CD8
3E14
3E55
3E59
3E79
3E3C
3E33
3E06
3DB8
3D94
BD45
BE1A
BE7D
BE16
BDC1
BBBC
3C49
BD7C
3B77
BD43
BD16
BDC0
BD46
BDF8
BD4D
BCD4
3B82
BC69
BC61
3CC2
3D50
3E2F
3E32
3E2B
3E19
3E04
3DA6
3DC7
3D10
BDE0
BDFB
BDEE
BE08
BC3D
3D41
BD2A
BD6A
BD8C
BD4B
BE06
BDCB
BD34
3B83
BD14
BD5E
BD68
BD68
BD9D
BD23
3CEA
3E05
3E09
3E16
3E0F
3DC2
3E03
3D86
BC0A
BDE7
BE35
BDAB
3C0C
BCCB
BDC6
BD1A
BB1D
BD83
BDBC
BDAC
BD0D
BD73
BD18
BD48
BDB9
BD98
BDAF
BDED
BDBE
BC04
3DAD
3DE6
3DF7
3DC4
3D47
3DCB
3D71
BE04
BE06
BCC6
BD3B
3BCD
BDAA
BD32
BBA0
BDEA
BDB7
BCE4
BCBB
BD51
BDB5
BD88
BD52
BDBB
BE1A
BE02
BE35
BD67
3C95
3C9C
3D7F
3DBF
3DBA
3E02
3D33
BE10
BE1A
BDA2
3CA9
BD18
BB32
BDA4
BD98
BD71
BD81
BC78
BD03
BDAA
BDCC
BDE0
BD88
BE37
BE13
BE14
BE4B
BE15
BDBF
3CC6
3DCF
3DE2
3E1A
3DDF
3D68
BD10
BD4C
BDBB
3B24
BCEC
BC3B
BDA3
BCE1
3B90
BDEF
BD15
BDE0
BD30
BD54
BB5D
BD9B
BE27
BE02
BD9C
BDDF
BD8F
BDCA
BCC5
3DE3
3DD5
3DF6
3D12
BD46
BAE7
BD2C
BD82
BCE2
BD55
BD3F
BDC4
394C
BD96
BD4C
BD7B
BDC0
BD3D
3B4D
3D8B
3CDE
3C01
3D1A
3C4E
BCB9
BD2B
BD57
BD37
3CEE
3D2E
3B00
BCBE
BDF7
BD53
BCA9
3A90
BC96
BD7C
BDD9
BD84
BCFA
BD81
BD6F
3A81
BCD6
BD1B
BC9B
3C3C
3D1B
3BF1
3DF2
3D96
3CEF
3C16
BD47
BCD2
BD4A
BB74
BB55
BD87
BD91
BD7A
BD1A
3DC6
3D92
BD8B
BDB8
BE2F
BD2D
3C41
3CD3
3D35
3CFA
3BB0
3C5C
BCE6
BC98
BC3A
3D39
3CA2
3D97
3CA5
BD6B
BDA7
BD8B
BDA3
BDC7
BDA6
BD9C
BC96
3A0F
3D31
3D84
BB21
BDB1
BD6D
BD8F
3CA7
BBDF
3B85
3D0F
3C91
3C30
3CB6
BCAE
BA3B
BD34
3D13
3C2A
3D22
BC3E
BDFF
BE27
BE0F
BDF4
BCBB
BD96
BCD0
3D2E
3D8A
3DA1
BB98
BD65
BDB9
BC87
BBB7
BC81
3C55
BC3C
3D3F
3C78
BC62
BD33
3BE9
BB99
BC15
3CD7
3D98
BCA8
BDAE
BDF4
BE25
BDBC
BCB0
BDC6
3AC9
3DE5
3D47
3DF2
3BDD
BCBB
BE1C
BDA7
BD0E
BCF6
BCA3
3D77
3CF5
3CCB
3D7B
BBAB
BDDB
BD95
BC36
3D49
3C49
3C52
BDB5
BE02
BDE1
BD5C
BA83
3D5D
3DA3
3D94
3DB8
3DDA
BD83
3CE6
BDC7
BDDB
3C82
3C8E
BC88
3D5B
3CB9
39CE
3D76
BD04
BCBF
BCE7
BD1C
3B08
BAA4
3CD4
BC7B
BD87
BD24
BD94
3D0C
3D09
BD0C
3D02
3D0B
3CCB
3CBD
3D16
BC9D
3CE8
3D09
3DBA
3D62
3DB4
3C3B
3945
3CF4
BD16
3CB3
3B3C
BD0E
3D42
3CA8
BC72
3CD7
BCF1
BDB5
BCDA
BD3F
BD1F
BD39
BD21
3CE6
BCB1
BCF1
3C59
3DE5
3DBD
3D96
3D28
3D5B
3D34
3C65
3D96
3D6D
3D2B
3CE2
3CBC
3CD3
BB14
3CCA
BC8D
BC39
BCF4
BDE1
BD89
BC0C
390D
3B4E
3B82
3DAF
BC21
BCAF
BBBC
3E03
3DC1
BC1E
3BF8
3E05
3E0E
3E0F
3DF1
3DFE
3D89
3D3A
3D30
3CA1
BC90
3C19
3B16
3D11
BD27
BD07
BD24
3D30
BCAA
3D75
3C93
BD33
3BCB
3C96
BCCF
3D77
BC40
BDA0
BDA1
BCD2
3D69
3D92
3E05
3DAF
3E0D
3D85
3DBC
3D94
3D2A
BBEA
3CC2
3D99
3D87
BC04
3D1C
3DAC
3D59
3CF8
3BEA
BDB3
BD08
BCA2
BCF0
BD79
BD97
BDF5
BDC2
BE2C
BD96
BD5A
BD87
B9B1
3CA3
3D92
3C17
3D1E
3D89
3DA4
3DA9
3DE4
3DB4
3DBB
3DC8
3D47
3DD0
3DC5
3DA2
3D2C
BC63
3C64
BA63
3DA4
BD9D
BE07
BD9C
BD76
BCE3
BBB1
BC63
3C7D
3C81
BD27
3C54
BC17
BD1E
3BA8
3CBA
3AFE
3DBF
3DE5
3DA5
BCBD
BC84
BD2D
3CD9
3D2B
BCE6
BB9B
3CF2
3CEA
3D90
BBC2
3BCC
3D2B
3DA0
3DED
3D24
3D6D
3D83
3CEF
3C27
3D08
BCA8
BCE3
BBA3
3DB7
3D91
3DD5
3D11
3BEB
BD3A
BD1C
BD44
BC9D
BD02
BB71
BC4B
BC8C
3BB4
BD71
BD9A
BCEE
BC2C
BCDF
3CF5
3CD3
3D99
3CE3
BDE4
BCCA
BCD1
BD9E
BD24
BCF1
BCDF
3CCA
3D3B
3CDF
BD1E
3CD3
3D10
BCCF
BCDB
3CDF
BD0A
BCAB
BBB7
3BB9
3CB6
3CA9
3CD9
3C94
BD0A
BCF7
BC4C
3D6A
3C80
3C47
3D86
BC51
3C95
BCB1
3CFE
BCC7
BD0A
3C2B
3BF6
BCC4
3D0A
3D0C
BC36
3C94
3C7D
BBE6
3C91
3D0D
3CEB
3CBC
3D34
3CEB
BCBD
3CDB
3C61
3D19
3AF1
BB81
BC95
BCBF
3C9A
3A2A
BD0F
BC92
BD17
3C95
BCC9
BCD1
BCFB
BC7C
BBF2
3CD8
BCF5
3C27
3C46
BC11
3D31
BC8E
3C33
BCCF
3CD6
3C20
3D90
3E1A
3E16
3DDA
3CF7
BD8C
BDD3
BDD3
BDC3
BD39
3D07
BD7B
BD60
3BD1
3CB0
BCE8
BCAB
3C98
B8E3
3D3A
3C80
BDB6
3D0A
3D68
3D4B
3E35
3DEE
3DFF
3E23
3E75
3E79
3E5E
3E1A
3E08
3DDB
BB65
BD3D
BCB2
BDAC
BE21
BE3C
BE19
3B54
BD46
BCEB
3BE4
3C91
3D5C
3D5F
3D94
3D2B
3DD2
3D9F
3DE3
3E51
3E23
3E08
3DCB
3E0B
3D94
3DB0
3DE5
3DB0
3D49
3CF7
BD7B
BD65
BCC9
BE19
BE19
BE1D
3B7B
BA68
3CF2
3BF9
3DAE
3DD7
3DE5
3DCA
3D5E
3C36
3D75
3DB6
3DBE
3B05
3D57
3D9A
3DA1
3D22
3DA2
BBED
3CA8
3C68
BC13
BD07
BC93
BCBC
BE0C
BDE5
BD17
BDA3
3C9F
3D6A
3D14
3DBA
3DFA
3D74
3CE4
3BFB
3DB3
3D96
3DC3
3CC8
3CB6
3D91
3DCC
3B57
BAD3
3CAC
3D97
3C52
BC5B
3D91
3C7E
BCE9
BE1B
BE28
BDC1
BC94
3BC2
3E04
3AA7
3DA5
3DA7
3D96
3DC9
3BE8
B992
BC5C
3C47
3CB1
3C41
3DB7
3E02
3D89
3D41
3DA7
3CB7
BB83
3CDA
BCB0
3CF0
BD9A
BE03
BDD4
BE0B
BBA7
3D83
3D56
3D96
3DBE
3D65
BC85
3C5E
BBB8
BCA4
BDD6
BDF3
BDF9
BD8A
BC8D
3DD5
3E22
3DFE
3DE4
3D9A
3B2B
3CEA
3CC7
3CB0
BCBD
BE2C
BDD8
BD79
BD05
3D11
3CA8
3D88
3D9F
3C5E
BCBE
BD51
BE2B
BE10
BE44
BE40
BE4D
BE41
BDA3
3D0D
3E1E
3E58
3DDB
3DB7
3DB4
3CBA
3C28
3CA9
3CB2
BDA3
BD36
BE0E
3C54
3CC1
3D28
3E00
3D48
BDD1
BDDF
BE0D
BE85
BE69
BE7F
BE70
BE38
BE20
BDB8
BC79
BC40
3DB7
3D95
3D40
3CEC
3D3B
3D5C
3DB1
3D57
3BCE
BD28
BCAF
B946
3CCE
3CBD
3D3C
3C74
BE07
BE2E
BE5D
BE8C
BE71
BE2A
BE09
BCC1
BC47
3AA9
BDB3
BD51
BD91
BD02
3CBE
3C07
3D4B
BCE5
3D3C
BC22
BC96
BD61
BD41
3CCD
3D25
BBE9
BD13
BDC1
BE2E
BE3D
BE1C
BDBC
BDB2
3CA3
3D5A
3DBC
3DEC
BD52
BDD4
BE14
BDB6
BCCE
BD2B
BD31
BD5D
BDA4
BCBB
BBD7
BC83
BD8D
BC41
BCEF
BC8D
BC24
3D4F
BDDA
BE3E
BD99
BCC2
3D4A
3DE5
3DFA
3E14
3D88
3D52
BD6F
BDE7
BDF0
BE0A
BD8D
3C36
BDB2
BDE3
BD1E
BD8A
BCD5
BCDE
3C45
BBDF
3ACE
3CF5
3D30
3CDB
BDA1
BDB9
3D34
3DD7
3D8C
3DB0
3DE3
3DAE
3D6F
BC90
BDC3
BDE9
BDD6
BDE7
BD49
BD97
BD58
BDB5
BD23
BD8B
BBD3
BC51
BD6F
3D96
3D43
3D00
3C17
3D4B
3CA6
BD01
3DBE
3D23
3CBC
BB58
BADE
BCD1
BCD0
BD95
BDB8
BDEF
BD89
BD8F
BD6F
BD6B
BD7A
BD1B
BCC5
BD8A
BAEB
BB3D
BCB0
3E0A
3D96
39A2
3D6F
3DCC
3D91
3CE7
3D5C
3C86
BDC4
BD7E
BD8C
BD5E
BD6E
BD9B
BD73
BDEE
BD47
BD18
BCDA
BD17
BD25
BD1B
BD56
BD27
BCC2
3CD5
BD06
3DC4
3D73
BD0E
3DCD
3D91
3D13
3D5B
BD60
BDFD
BE1B
BE22
BE34
BE19
BE09
BE2E
BDAC
BE06
BD41
BD5C
BBEC
3CC1
BD00
BD82
BDBF
BD80
BB85
BD56
3C90
3D9A
3DB7
3D78
3DA7
3D0D
3D89
BCD7
BD2F
BDE8
BDAE
BDCF
BD78
BDDB
BDFC
BDE0
BD5F
BDB5
BD28
BD24
3C66
3C13
3CB3
BD40
BC5F
3C3D
BD45
BD8E
3D5E
3DC2
3DE2
BCC5
3D97
3A95
3CCC
3BBC
BD39
BCFA
BD76
BD6E
BCF7
3B0B
3D69
3DA0
3E1A
3D91
3D87
3D06
3C81
3BD0
BD0F
3C0E
BC98
BD40
BD5F
BDAA
3BAF
3DD7
3D84
3CE5
3D0A
BC31
3DD3
BCB9
3CA2
3C48
3BF6
3D33
3CC0
3D74
3E0F
3E53
3E2F
3E42
3E0D
3CDB
3CA8
BB2B
3BDD
3A9E
3CCC
BCD0
BC4C
BBA1
3D21
3E0A
3D0D
BA7D
3D1F
3DA8
3E03
3C7A
3BA4
3C94
3CAD
3D31
3C83
3DA9
3DDB
3E11
3DF5
3E04
3DB7
3D34
3D40
3CE0
3CA5
BC3D
BC6E
3C8A
3D0C
3D41
3DB7
3DA4
BAD9
3D13
3D43
3DD4
3D8F
BB17
BC0B
3C8A
3D02
3D5C
3D73
3DD6
3D6E
3D57
3D44
3D52
3D7C
3D6E
3DA2
3C6B
BB6B
3CC6
BD39
3DA2
3DBC
3D42
3D53
BBE5
3C84
BCE1
3C97
3D8B
3D9F
3D53
3D21
3D00
3DE4
3D62
3D97
3DF1
3E01
3D8C
3D4B
3D81
3D91
BBED
BC8C
39C6
3CA7
BD06
BC1F
3D96
3D90
3CDA
3D93
3D4C
BCB0
BC67
3B76
3B48
3DB2
3E1B
3DAB
3DF1
3DC7
3D4A
3D9F
3D5E
BBDC
3D43
3CFA
3D9A
3D5F
BD72
3D95
BD08
BE09
BDD3
BD3E
BD19
3D15
3DAB
3DF4
3C8D
BCA8
39DA
BB09
BB20
3B2E
3E1A
3DF2
3E00
3DE9
3DEF
3D34
3CDA
BB5C
3DB7
3D99
3CA9
BC3A
BADC
BD2B
BCE9
3B61
BD32
BE15
BDC8
BD2F
3D99
BD8C
BD07
BC90
3C92
3CAF
3BFD
3BEA
BDDF
BD93
BD55
3D08
3D1C
BCC2
BD51
BD95
BCE6
3D1E
3C4B
3D97
3DDD
3D07
3D15
BC37
BC8B
BCFF
BD10
3B86
BBEC
3D7F
BD0C
BAB9
3C77
BC45
BC9A
BCC9
3D82
3DD3
3D8A
3D84
3D05
B9EF
BDCF
BD1E
3CBC
3D8D
3D4F
3DC5
3CEF
3D75
3D02
3D09
3C85
3C8C
3C4C
BD03
BCFB
BC92
BCBF
3BB6
BABC
3B8A
BC7B
BCB3
3AD0
BCA4
3C75
3C9E
3C3D
3C76
3CD4
BCB6
3C2D
3BBB
BC02
BB96
3C0B
BC3F
BCF6
BC3E
BC75
BD02
3C2B
3D03
BC6B
3C95
3CDE
3D11
3BC2
3C54
B9A7
3CC2
3B1A
3B34
BCDD
BCD1
BA50
BCC0
BD48
BD07
BC84
BD64
BAEF
3D08
3D81
BD2E
BE2B
BE1C
BDC4
BD1D
BD34
BD75
3D12
BBA8
3CD9
BCCF
BD04
BCF5
3CA0
3C99
BD71
BC8D
BBD7
BDAD
BE1A
BD4F
BE0C
BDF5
BDF1
BDA5
BDBC
BD29
BD87
BDA3
BE03
BE46
BE0D
BE39
BD71
BD91
BA14
3CEF
3C83
3D0C
BB71
BC03
3DCB
BD1B
BD60
BE1E
BE02
BDD3
BE3E
BE1C
BE05
BE06
BDBC
BDCD
BE38
BE0D
BE0F
BE02
BDD9
BDF3
BDE8
BDFD
BDA2
BD54
BCCD
BCF1
BDA5
BD05
BC9F
3CD2
3D58
3D26
BC60
BDAF
BDAB
BDBF
BBB0
BDA1
BB6E
BD1A
3D16
3DCF
3D53
BB39
BD1E
BDD2
BDAE
BD9D
BD71
BD97
BD9F
BDFE
BDEB
BCBD
3C2B
BD40
BD0F
BCF1
3E14
3E09
397E
BC4E
3A7F
BCF9
BC9D
3BBF
BD8B
3CA5
3D78
3D5B
3DA3
3D2C
BCAB
BDF2
BE09
BDB3
BDEF
BCBA
BCFF
BDAD
BDA0
BCE8
BD82
BCE5
BCED
3D8C
BD8D
3E23
3D1E
BDC5
BC95
BBD6
3C9C
3CEF
3CBB
3D2F
3D2B
3D64
3C7B
3D53
3CED
BB54
BD19
BDDB
BD7E
BD61
BE22
BD97
BE14
BC69
BCE9
BCDA
BCA2
3D40
3D94
3E27
3D2B
BD6D
3CAE
3BE5
BCF1
3D35
BC1F
BD32
BC12
3D9B
BC58
3D36
3D90
BC55
BB38
BCC3
BD88
BDEA
BE18
BDFB
BDFC
BDA8
BA21
BCA4
BD1E
3E16
BC4D
3DD7
3DF0
3D64
3D41
3DD0
3D83
3D27
3D79
BC55
3D5A
3DA9
3E06
3DF7
3DB3
3D8E
3DDD
3CB6
BD5C
BDDA
BDCF
BE27
BE4D
BDE9
3D5A
3D4F
3C48
3DC1
3C9D
3DC1
3DE0
3CC7
3D46
3D93
3D3A
3CD5
3D0D
3D4C
3D65
3E16
3E34
3E29
3E15
3E18
3E23
3DC1
BD1B
BDED
BE1F
BE63
BE08
BD97
3E15
3D16
3CFC
3DC5
3DDB
3DAE
3D84
3DC7
3D9F
3D79
BA8C
3D58
3D3A
3DD9
3DC4
3E19
3E13
3E30
3DE4
3E04
3E15
3DDE
BB0B
BE02
BE36
BE37
BE14
BDB8
3D0D
3DEF
3D83
3DB2
3DC0
3DF9
3DA3
3D34
3D12
3DEE
3CC8
3D41
3D01
3D2C
3D43
3DE6
3DF7
3E0B
3D98
3E37
3E0C
3DBA
3A48
BE06
BE1D
BE23
BDDC
BD43
3D5A
3DAA
3D15
3DC1
3DC5
3E00
3DAE
3D85
BCC2
3C04
BBBE
BC26
BD6A
BD21
BD86
BB3C
3E0C
3E16
3E2D
3E53
3E56
3CF3
BDB9
BDDA
BE14
BD56
BD35
3D26
3D88
3DC2
3D39
3CD7
3D96
3DE6
3D79
BCE3
BCB9
BD96
BD5B
BD9C
BD8F
BD21
BDE2
BC89
3DBC
3E3C
3E07
3E44
3E15
BDB8
BE2E
BE06
BDEB
BDF8
3C70
3E2A
3DE9
3DD0
BC9F
3D57
3DB5
3DE7
3D0E
BDA0
BE06
BE15
